{
  "version": "1.0",
  "truncation": {
    "direction": "Right",
    "max_length": 32,
    "strategy": "LongestFirst",
    "stride": 0
  },
  "padding": {
    "strategy": {
      "Fixed": 32
    },
    "direction": "Right",
    "pad_to_multiple_of": null,
    "pad_id": 0,
    "pad_type_id": 0,
    "pad_token": "[PAD]"
  },
  "added_tokens": [
    {
      "id": 0,
      "content": "[PAD]",
      "single_word": false,
      "lstrip": false,
      "rstrip": false,
      "normalized": false,
      "special": true
    },
    {
      "id": 1,
      "content": "[UNK]",
      "single_word": false,
      "lstrip": false,
      "rstrip": false,
      "normalized": false,
      "special": true
    },
    {
      "id": 2,
      "content": "[CLS]",
      "single_word": false,
      "lstrip": false,
      "rstrip": false,
      "normalized": false,
      "special": true
    },
    {
      "id": 3,
      "content": "[SEP]",
      "single_word": false,
      "lstrip": false,
      "rstrip": false,
      "normalized": false,
      "special": true
    },
    {
      "id": 4,
      "content": "[MASK]",
      "single_word": false,
      "lstrip": false,
      "rstrip": false,
      "normalized": false,
      "special": true
    }
  ],
  "normalizer": {
    "type": "BertNormalizer",
    "clean_text": true,
    "handle_chinese_chars": true,
    "strip_accents": null,
    "lowercase": true
  },
  "pre_tokenizer": {
    "type": "BertPreTokenizer"
  },
  "post_processor": {
    "type": "TemplateProcessing",
    "single": [
      {
        "SpecialToken": {
          "id": "[CLS]",
          "type_id": 0
        }
      },
      {
        "Sequence": {
          "id": "A",
          "type_id": 0
        }
      },
      {
        "SpecialToken": {
          "id": "[SEP]",
          "type_id": 0
        }
      }
    ],
    "pair": [
      {
        "SpecialToken": {
          "id": "[CLS]",
          "type_id": 0
        }
      },
      {
        "Sequence": {
          "id": "A",
          "type_id": 0
        }
      },
      {
        "SpecialToken": {
          "id": "[SEP]",
          "type_id": 0
        }
      },
      {
        "Sequence": {
          "id": "B",
          "type_id": 1
        }
      },
      {
        "SpecialToken": {
          "id": "[SEP]",
          "type_id": 1
        }
      }
    ],
    "special_tokens": {
      "[CLS]": {
        "id": "[CLS]",
        "ids": [
          2
        ],
        "tokens": [
          "[CLS]"
        ]
      },
      "[SEP]": {
        "id": "[SEP]",
        "ids": [
          3
        ],
        "tokens": [
          "[SEP]"
        ]
      }
    }
  },
  "decoder": {
    "type": "WordPiece",
    "prefix": "##",
    "cleanup": true
  },
  "model": {
    "type": "WordPiece",
    "unk_token": "[UNK]",
    "continuing_subword_prefix": "##",
    "max_input_chars_per_word": 100,
    "vocab": {
      "[PAD]": 0,
      "[UNK]": 1,
      "[CLS]": 2,
      "[SEP]": 3,
      "[MASK]": 4,
      "!": 5,
      "'": 6,
      "(": 7,
      ")": 8,
      "+": 9,
      ",": 10,
      "-": 11,
      ".": 12,
      "/": 13,
      "0": 14,
      "1": 15,
      "2": 16,
      "3": 17,
      "4": 18,
      "5": 19,
      "6": 20,
      "7": 21,
      "8": 22,
      "9": 23,
      ":": 24,
      ";": 25,
      "<": 26,
      "=": 27,
      ">": 28,
      "?": 29,
      "[": 30,
      "]": 31,
      "_": 32,
      "a": 33,
      "b": 34,
      "c": 35,
      "d": 36,
      "e": 37,
      "f": 38,
      "g": 39,
      "h": 40,
      "i": 41,
      "j": 42,
      "k": 43,
      "l": 44,
      "m": 45,
      "n": 46,
      "o": 47,
      "p": 48,
      "q": 49,
      "r": 50,
      "s": 51,
      "t": 52,
      "u": 53,
      "v": 54,
      "w": 55,
      "x": 56,
      "y": 57,
      "z": 58,
      "{": 59,
      "}": 60,
      "~": 61,
      "ä": 62,
      "ð": 63,
      "ø": 64,
      "ü": 65,
      "ı": 66,
      "š": 67,
      "ʾ": 68,
      "̯": 69,
      "̱": 70,
      "͗": 71,
      "ḏ": 72,
      "ḥ": 73,
      "ḫ": 74,
      "ḳ": 75,
      "ṯ": 76,
      "ṱ": 77,
      "ẖ": 78,
      "–": 79,
      "…": 80,
      "⁝": 81,
      "≡": 82,
      "〈": 83,
      "〉": 84,
      "⸢": 85,
      "⸣": 86,
      "⸮": 87,
      "ꜣ": 88,
      "ꜥ": 89,
      "ꞽ": 90,
      "𓊆": 91,
      "𓊇": 92,
      "𓍹": 93,
      "𓍺": 94,
      "##s": 95,
      "##d": 96,
      "##ꜣ": 97,
      "##t": 98,
      "##b": 99,
      "##ꜥ": 100,
      "##m": 101,
      "##p": 102,
      "##r": 103,
      "##y": 104,
      "##ḥ": 105,
      "##z": 106,
      "##w": 107,
      "##n": 108,
      "##j": 109,
      "##1": 110,
      "##0": 111,
      "##š": 112,
      "##𓊇": 113,
      "##u": 114,
      "##̯": 115,
      "##≡": 116,
      "##f": 117,
      "##q": 118,
      "##h": 119,
      "##ẖ": 120,
      "##ḫ": 121,
      "##k": 122,
      "##ꞽ": 123,
      "##g": 124,
      "##l": 125,
      "##i": 126,
      "##5": 127,
      "##ḏ": 128,
      "##ı": 129,
      "##͗": 130,
      "##ʾ": 131,
      "##7": 132,
      "##ṱ": 133,
      "##ṯ": 134,
      "##ḳ": 135,
      "##ü": 136,
      "##c": 137,
      "##e": 138,
      "##8": 139,
      "##2": 140,
      "##a": 141,
      "##𓍺": 142,
      "##3": 143,
      "##4": 144,
      "##x": 145,
      "##̱": 146,
      "##6": 147,
      "##o": 148,
      "##9": 149,
      "##ä": 150,
      "##i̯": 151,
      "ḥr": 152,
      "pl": 153,
      "nb": 154,
      "jr": 155,
      "jm": 156,
      "jw": 157,
      "tj": 158,
      "##ṯr": 159,
      "sn": 160,
      "nṯr": 161,
      "pꜣ": 162,
      "rꜥ": 163,
      "ḫr": 164,
      "pr": 165,
      "jn": 166,
      "tꜣ": 167,
      "nf": 168,
      "##nḫ": 169,
      "nfr": 170,
      "kꜣ": 171,
      "##wt": 172,
      "rꜥw": 173,
      "ns": 174,
      "rʾ": 175,
      "ḥm": 176,
      "mr": 177,
      "mꜣ": 178,
      "ꜥꜣ": 179,
      "ḏd": 180,
      "ꜥnḫ": 181,
      "tw": 182,
      "wn": 183,
      "jri̯": 184,
      "sw": 185,
      "##tp": 186,
      "jt": 187,
      "zꜣ": 188,
      "nswt": 189,
      "wr": 190,
      "ḥꜣ": 191,
      "wꜥ": 192,
      "ḥtp": 193,
      "ws": 194,
      "ḏi̯": 195,
      "rn": 196,
      "jmn": 197,
      "mn": 198,
      "ḫꜣ": 199,
      "ḫn": 200,
      "wꜣ": 201,
      "pw": 202,
      "ẖr": 203,
      "tp": 204,
      "mꜣꜥ": 205,
      "sm": 206,
      "du": 207,
      "bꜣ": 208,
      "wt": 209,
      "jb": 210,
      "ḥn": 211,
      "ꜣḫ": 212,
      "nn": 213,
      "sḫ": 214,
      "mj": 215,
      "##pr": 216,
      "st": 217,
      "wj": 218,
      "ḫrw": 219,
      "ḥw": 220,
      "ms": 221,
      "wḏ": 222,
      "ꜥḥ": 223,
      "ḫt": 224,
      "##≡f": 225,
      "nꜣ": 226,
      "pn": 227,
      "jꜣ": 228,
      "šm": 229,
      "##jr": 230,
      "##ꜣḫ": 231,
      "##py": 232,
      "tt": 233,
      "ḫnt": 234,
      "ppy": 235,
      "wsjr": 236,
      "sš": 237,
      "sꜣ": 238,
      "mḥ": 239,
      "ḏꜣ": 240,
      "##ẖꜣ": 241,
      "hꜣ": 242,
      "ḫpr": 243,
      "sḏ": 244,
      "bj": 245,
      "zẖꜣ": 246,
      "jmꜣḫ": 247,
      "ḏr": 248,
      "rḏ": 249,
      "nw": 250,
      "tn": 251,
      "šn": 252,
      "sr": 253,
      "nḏ": 254,
      "md": 255,
      "ꜥḥꜥ": 256,
      "mw": 257,
      "rḏi̯": 258,
      "pri̯": 259,
      "pꜣy": 260,
      "pt": 261,
      "ṯn": 262,
      "ḥnꜥ": 263,
      "nḥ": 264,
      "jy": 265,
      "rḫ": 266,
      "tʾ": 267,
      "sḥ": 268,
      "ꜣb": 269,
      "yt": 270,
      "ṯꜣ": 271,
      "sb": 272,
      "mt": 273,
      "hr": 274,
      "jtn": 275,
      "ẖn": 276,
      "wp": 277,
      "ḥḏ": 278,
      "rd": 279,
      "js": 280,
      "nḫ": 281,
      "##wi̯": 282,
      "sp": 283,
      "bw": 284,
      "jni̯": 285,
      "mri̯": 286,
      "wḏꜣ": 287,
      "hrw": 288,
      "wꜥb": 289,
      "##bn": 290,
      "rnp": 291,
      "ḥꜥ": 292,
      "gr": 293,
      "tm": 294,
      "ḫf": 295,
      "ps": 296,
      "##wꜣ": 297,
      "ḥs": 298,
      "bn": 299,
      "##rj": 300,
      "##ḏꜣ": 301,
      "mdw": 302,
      "ḏw": 303,
      "zp": 304,
      "jnk": 305,
      "smr": 306,
      "ḏs": 307,
      "ḫꜥ": 308,
      "ṯw": 309,
      "nm": 310,
      "ḫft": 311,
      "ꞽm": 312,
      "ꞽr": 313,
      "wnn": 314,
      "msi̯": 315,
      "mꜣꜣ": 316,
      "gm": 317,
      "ptḥ": 318,
      "kw": 319,
      "nt": 320,
      "gs": 321,
      "##00": 322,
      "##tꜣ": 323,
      "##qꜣ": 324,
      "mtw": 325,
      "ꜥš": 326,
      "sḫm": 327,
      "sḏm": 328,
      "sḥḏ": 329,
      "šs": 330,
      "wꜣḏ": 331,
      "jwi̯": 332,
      "rw": 333,
      "pḥ": 334,
      "šp": 335,
      "šw": 336,
      "jp": 337,
      "wsr": 338,
      "nḫt": 339,
      "rm": 340,
      "dwꜣ": 341,
      "ꜣbd": 342,
      "##kꜣ": 343,
      "qꜣ": 344,
      "šꜣ": 345,
      "ꜥn": 346,
      "sꜥ": 347,
      "ḏḥ": 348,
      "##zw": 349,
      "bꜣḥ": 350,
      "nḥḥ": 351,
      "jṯ": 352,
      "ḫtm": 353,
      "šps": 354,
      "ꜥq": 355,
      "##jw": 356,
      "ẖnw": 357,
      "wḥ": 358,
      "jnp": 359,
      "jwn": 360,
      "sṯ": 361,
      "ḫm": 362,
      "jꜥ": 363,
      "wd": 364,
      "rs": 365,
      "ḥz": 366,
      "nzw": 367,
      "##bꜣ": 368,
      "bꜣk": 369,
      "dm": 370,
      "##js": 371,
      "ky": 372,
      "psḏ": 373,
      "qd": 374,
      "jmi̯": 375,
      "ḏsr": 376,
      "sšm": 377,
      "ḥqꜣ": 378,
      "ḫs": 379,
      "jḫ": 380,
      "šmꜥ": 381,
      "mš": 382,
      "sj": 383,
      "qr": 384,
      "nsw": 385,
      "ḥt": 386,
      "qn": 387,
      "nbw": 388,
      "šꜥ": 389,
      "jḥ": 390,
      "##pd": 391,
      "##bḥ": 392,
      "##si̯": 393,
      "nꜣy": 394,
      "šd": 395,
      "wnm": 396,
      "dj": 397,
      "jd": 398,
      "šz": 399,
      "jz": 400,
      "tꜣy": 401,
      "ꞽn": 402,
      "tꞽ": 403,
      "##mꜣ": 404,
      "mnḫ": 405,
      "ꜣpd": 406,
      "sk": 407,
      "ḫrp": 408,
      "mꜥ": 409,
      "ꜥr": 410,
      "hꜣb": 411,
      "gmi̯": 412,
      "ḥꜣb": 413,
      "mšꜥ": 414,
      "sḫr": 415,
      "10": 416,
      "ḥb": 417,
      "dr": 418,
      "nʾ": 419,
      "km": 420,
      "ḫp": 421,
      "##ty": 422,
      "##nm": 423,
      "mnw": 424,
      "ꜣs": 425,
      "##ẖr": 426,
      "ḫꜣs": 427,
      "šzp": 428,
      "##tj": 429,
      "zꜣb": 430,
      "mrr": 431,
      "ḏḥw": 432,
      "ttj": 433,
      "sd": 434,
      "smꜣ": 435,
      "di̯": 436,
      "wbn": 437,
      "snb": 438,
      "stp": 439,
      "##qr": 440,
      "ꜥḥꜣ": 441,
      "sbꜣ": 442,
      "jꜣb": 443,
      "ḫsf": 444,
      "šms": 445,
      "ḫꜥi̯": 446,
      "nmt": 447,
      "nh": 448,
      "wꜣḥ": 449,
      "swt": 450,
      "qrs": 451,
      "pẖr": 452,
      "##u̯": 453,
      "ẖ": 454,
      "spr": 455,
      "sf": 456,
      "jtj": 457,
      "nḏm": 458,
      "ꜥšꜣ": 459,
      "gb": 460,
      "šmi̯": 461,
      "##kr": 462,
      "ḥmsi̯": 463,
      "sštꜣ": 464,
      "jrp": 465,
      "ꜥḏ": 466,
      "wnjs": 467,
      "sms": 468,
      "ḫwi̯": 469,
      "ꞽw": 470,
      "ptr": 471,
      "ꜥb": 472,
      "ṯz": 473,
      "wpi̯": 474,
      "wꜣs": 475,
      "dp": 476,
      "ḥnq": 477,
      "šrj": 478,
      "snḏ": 479,
      "jṯi̯": 480,
      "ḥḥ": 481,
      "mḏꜣ": 482,
      "hꜣi̯": 483,
      "gꜣ": 484,
      "ẖꜣ": 485,
      "##šr": 486,
      "##fꜣ": 487,
      "snṯr": 488,
      "ḏb": 489,
      "rdj": 490,
      "##kn": 491,
      "qbḥ": 492,
      "mḏ": 493,
      "≡j": 494,
      "rdi̯": 495,
      "grḥ": 496,
      "rmṯ": 497,
      "sbk": 498,
      "ḏḏ": 499,
      "jrj": 500,
      "wḫ": 501,
      "wjꜣ": 502,
      "##≡j": 503,
      "ṯꜣw": 504,
      "wš": 505,
      "##ꜣi̯": 506,
      "mrḥ": 507,
      "jrr": 508,
      "ꜣw": 509,
      "##ꞽs": 510,
      "pꜥ": 511,
      "##nw": 512,
      "##≡s": 513,
      "wḥm": 514,
      "mrw": 515,
      "pf": 516,
      "stš": 517,
      "nb≡f": 518,
      "ꜣbḏ": 519,
      "ẖnm": 520,
      "ḥsb": 521,
      "qs": 522,
      "wnꞽs": 523,
      "dbn": 524,
      "smn": 525,
      "jꜣw": 526,
      "wsḫ": 527,
      "šdi̯": 528,
      "##nj": 529,
      "64": 530,
      "100": 531,
      "t≡f": 532,
      "zḥ": 533,
      "swꜣ": 534,
      "dꜣ": 535,
      "my": 536,
      "ḥbs": 537,
      "yw": 538,
      "ḫw": 539,
      "ḏbꜥ": 540,
      "mk": 541,
      "i̯": 542,
      "ww": 543,
      "nty": 544,
      "##nn": 545,
      "grg": 546,
      "gbb": 547,
      "wy": 548,
      "ḏꜣi̯": 549,
      "štꜣ": 550,
      "ꞽb": 551,
      "di": 552,
      "pḏ": 553,
      "nḥm": 554,
      "pwy": 555,
      "sḏr": 556,
      "ḏꜣḏꜣ": 557,
      "##gꜣ": 558,
      "kꜣkꜣ": 559,
      "nj": 560,
      "ꞽri̯": 561,
      "ty": 562,
      "20": 563,
      "jry": 564,
      "tjw": 565,
      "sẖ": 566,
      "twt": 567,
      "##ḫn": 568,
      "dmḏ": 569,
      "##wn": 570,
      "sšr": 571,
      "sꜥḥ": 572,
      "kwj": 573,
      "fj": 574,
      "bd": 575,
      "rwḏ": 576,
      "kꜣkꜣj": 577,
      "ḏꜥ": 578,
      "ꜥpr": 579,
      "ḥmw": 580,
      "qmꜣ": 581,
      "ss": 582,
      "zꜣ≡f": 583,
      "##mn": 584,
      "jš": 585,
      "##hꜣ": 586,
      "šns": 587,
      "stẖ": 588,
      "##ḥn": 589,
      "jqr": 590,
      "ꞽt": 591,
      "ḫꜣꜥ": 592,
      "mry": 593,
      "16": 594,
      "ḫpš": 595,
      "ḥwi̯": 596,
      "šnw": 597,
      "jj": 598,
      "zn": 599,
      "mnj": 600,
      "tr": 601,
      "ds": 602,
      "wpw": 603,
      "jrʾ": 604,
      "wḏꜥ": 605,
      "jyi̯": 606,
      "sꜥnḫ": 607,
      "sq": 608,
      "ḥkꜣ": 609,
      "≡f": 610,
      "jṯꜣ": 611,
      "sṯꜣ": 612,
      "bjꜣ": 613,
      "fꜣi̯": 614,
      "##tw": 615,
      "spd": 616,
      "wꞽ": 617,
      "šnꜥ": 618,
      "wḥꜥ": 619,
      "dd": 620,
      "pz": 621,
      "ḫnm": 622,
      "jwꜥ": 623,
      "##ꜥḥ": 624,
      "swḏꜣ": 625,
      "##nḏ": 626,
      "nꜥ": 627,
      "ḥp": 628,
      "nbs": 629,
      "ḥtr": 630,
      "ṯzi̯": 631,
      "zmꜣ": 632,
      "jrm": 633,
      "ẖnm": 634,
      "jwf": 635,
      "sḫp": 636,
      "wꜣg": 637,
      "ḏḥwt": 638,
      "njw": 639,
      "jmj": 640,
      "šf": 641,
      "ḥꜥi̯": 642,
      "ẖkr": 643,
      "jtm": 644,
      "nš": 645,
      "šsp": 646,
      "zš": 647,
      "šnj": 648,
      "mnt": 649,
      "dmj": 650,
      "ꞽmꜣḫ": 651,
      "sḥtp": 652,
      "wnw": 653,
      "##ri̯": 654,
      "##fn": 655,
      "##tr": 656,
      "ꜥm": 657,
      "ḏbꜣ": 658,
      "wbꜣ": 659,
      "ꜥw": 660,
      "ḫns": 661,
      "nḥb": 662,
      "ẖrd": 663,
      "ḥnk": 664,
      "ḥkn": 665,
      "spꜣ": 666,
      "ṯr": 667,
      "qꜣi̯": 668,
      "jti̯": 669,
      "dšr": 670,
      "šb": 671,
      "rn≡f": 672,
      "šwi̯": 673,
      "32": 674,
      "pj": 675,
      "ꜣḥ": 676,
      "jmm": 677,
      "dbḥ": 678,
      "mʾ": 679,
      "jꜣr": 680,
      "zꜣw": 681,
      "ḥnw": 682,
      "mʾw": 683,
      "ṯs": 684,
      "ṯy": 685,
      "sḫꜣ": 686,
      "jꜣwi̯": 687,
      "mdwi̯": 688,
      "zb": 689,
      "##pj": 690,
      "dn": 691,
      "jwꜣ": 692,
      "hꜣy": 693,
      "smj": 694,
      "##ḫꜣ": 695,
      "jnn": 696,
      "bnj": 697,
      "hn": 698,
      "zj": 699,
      "wdn": 700,
      "mnṯ": 701,
      "ꞽꜣ": 702,
      "1000": 703,
      "th": 704,
      "šr": 705,
      "ḳd": 706,
      "jnb": 707,
      "wꜥr": 708,
      "bḥ": 709,
      "##pw": 710,
      "zḫn": 711,
      "ꜥḫ": 712,
      "##tt": 713,
      "bnr": 714,
      "pzn": 715,
      "##ꞽr": 716,
      "nḫn": 717,
      "ḏw≡f": 718,
      "wḫꜣ": 719,
      "jmy": 720,
      "rt": 721,
      "zw": 722,
      "msd": 723,
      "snf": 724,
      "ḫꜣw": 725,
      "ḏwj": 726,
      "wšb": 727,
      "nr": 728,
      "ṯḥn": 729,
      "jtr": 730,
      "twꜣ": 731,
      "##bw": 732,
      "wṯ": 733,
      "ḫpi̯": 734,
      "ḏj": 735,
      "rmn": 736,
      "mtr": 737,
      "wpl": 738,
      "##≡k": 739,
      "msḏ": 740,
      "bjt": 741,
      "sšmi̯": 742,
      "ḫb": 743,
      "snḏm": 744,
      "##zj": 745,
      "twy": 746,
      "pꜣj": 747,
      "smd": 748,
      "rš": 749,
      "ḥtm": 750,
      "mz": 751,
      "smꜣꜥ": 752,
      "ḥmt": 753,
      "wnḫ": 754,
      "šꜣꜥ": 755,
      "jšd": 756,
      "sḫpr": 757,
      "bjn": 758,
      "špss": 759,
      "nḫb": 760,
      "jpw": 761,
      "rk": 762,
      "##tn": 763,
      "mꞽ": 764,
      "tpl": 765,
      "ḥry": 766,
      "ntf": 767,
      "ḥmꜣ": 768,
      "srw": 769,
      "wdi̯": 770,
      "šsꜣ": 771,
      "sꜣḥ": 772,
      "ẖꜣr": 773,
      "ḏfꜣ": 774,
      "ḥbn": 775,
      "ꞽs": 776,
      "rtḥ": 777,
      "sg": 778,
      "ꞽy": 779,
      "nḏri̯": 780,
      "ꞽmn": 781,
      "ḫwi̯≡f": 782,
      "ṯwt": 783,
      "ꜥg": 784,
      "##ı͗": 785,
      "wtj": 786,
      "mm": 787,
      "##ꜥꜥ": 788,
      "fd": 789,
      "zkr": 790,
      "ꜣšr": 791,
      "ḥmty": 792,
      "nḏs": 793,
      "ḥꜥꜥ": 794,
      "ꜣbḏw": 795,
      "ḫnms": 796,
      "##pp": 797,
      "sjꜣ": 798,
      "ꜣy": 799,
      "##sn": 800,
      "ḏꜣr": 801,
      "ḫnf": 802,
      "šmj": 803,
      "ptrj": 804,
      "qꜣb": 805,
      "jnj": 806,
      "ḏḥwtj": 807,
      "ntk": 808,
      "sḫpi̯": 809,
      "jnr": 810,
      "wḏb": 811,
      "ꜣm": 812,
      "ꜥd": 813,
      "mꜣw": 814,
      "ꜥꜣpp": 815,
      "wrr": 816,
      "sbḫ": 817,
      "ḥṯ": 818,
      "ḥsi̯": 819,
      "sqd": 820,
      "ḫd": 821,
      "ḥꜣt": 822,
      "##pl": 823,
      "kk": 824,
      "wꜥḥ": 825,
      "sfḫ": 826,
      "wṯz": 827,
      "30": 828,
      "qm": 829,
      "nk": 830,
      "qb": 831,
      "mntk": 832,
      "ḥrw": 833,
      "mwt": 834,
      "##db": 835,
      "jst": 836,
      "bꜥḥ": 837,
      "sꜣḫ": 838,
      "mḥr": 839,
      "hꜣw": 840,
      "ḫnd": 841,
      "sḫt": 842,
      "šꜥd": 843,
      "stj": 844,
      "bjk": 845,
      "sjp": 846,
      "50": 847,
      "jꜣd": 848,
      "ṯꜣy": 849,
      "msḏr": 850,
      "fꜣ": 851,
      "ḥbnn": 852,
      "bs": 853,
      "fnḏ": 854,
      "ttꞽ": 855,
      "nms": 856,
      "pꜣw": 857,
      "ḥzi̯": 858,
      "rr": 859,
      "ꜥj": 860,
      "njs": 861,
      "ḥꜥpj": 862,
      "psd": 863,
      "tḫ": 864,
      "ꜥwꜣ": 865,
      "šni̯": 866,
      "wb": 867,
      "jrt": 868,
      "ḫꜣi̯": 869,
      "zbi̯": 870,
      "##tf": 871,
      "ṯꜣi̯": 872,
      "mrj": 873,
      "pš": 874,
      "jdb": 875,
      "##ḥw": 876,
      "ḥri̯": 877,
      "ꞽni̯": 878,
      "šš": 879,
      "jmꜣ": 880,
      "wrš": 881,
      "sꜣw": 882,
      "tw≡j": 883,
      "ẖrj": 884,
      "šmw": 885,
      "ꜥrf": 886,
      "sfṯ": 887,
      "ḫnsw": 888,
      "sḫn": 889,
      "db": 890,
      "hnw": 891,
      "ḥrj": 892,
      "nẖ": 893,
      "prr": 894,
      "sjn": 895,
      "kj": 896,
      "ꜥqꜣ": 897,
      "jwt": 898,
      "bꞽ": 899,
      "jh": 900,
      "ks": 901,
      "tꜣš": 902,
      "np": 903,
      "skꜣ": 904,
      "tꜣj": 905,
      "zꜣu̯": 906,
      "qsn": 907,
      "ḏn": 908,
      "ꜥꜣi̯": 909,
      "mjn": 910,
      "sḥn": 911,
      "sbj": 912,
      "ꜥḏd": 913,
      "mḏḥ": 914,
      "12": 915,
      "jrw": 916,
      "sḏꜣ": 917,
      "ẖs": 918,
      "ḥms": 919,
      "nḥs": 920,
      "jzzj": 921,
      "ski̯": 922,
      "msdm": 923,
      "wꜣi̯": 924,
      "##rw": 925,
      "sntr": 926,
      "jnt": 927,
      "twj": 928,
      "wrḏ": 929,
      "bḥd": 930,
      "ẖni̯": 931,
      "fn": 932,
      "ḫntj": 933,
      "ꜣbw": 934,
      "200": 935,
      "tkn": 936,
      "tfn": 937,
      "ꜣwi̯": 938,
      "##fd": 939,
      "wꜥi̯": 940,
      "tnw": 941,
      "ḫꜥi̯≡f": 942,
      "mki̯": 943,
      "kf": 944,
      "qꜥḥ": 945,
      "ḫru̯": 946,
      "ꞽnp": 947,
      "sꜥḥꜥ": 948,
      "dy": 949,
      "##tḫ": 950,
      "jꜥḥ": 951,
      "bš": 952,
      "trj": 953,
      "mẖ": 954,
      "pḫꜣ": 955,
      "ḥꜣty": 956,
      "wsꞽr": 957,
      "ḫftj": 958,
      "yꜣ": 959,
      "##wty": 960,
      "wrḥ": 961,
      "ḫnti̯": 962,
      "mḥw": 963,
      "wdḥ": 964,
      "nẖnm": 965,
      "##ꜥb": 966,
      "tjt": 967,
      "swrj": 968,
      "sti̯": 969,
      "ꜥrq": 970,
      "dgꜣ": 971,
      "ḫḫ": 972,
      "jwr": 973,
      "psi̯": 974,
      "sjr": 975,
      "bꜣs": 976,
      "jpj": 977,
      "wḫd": 978,
      "dnj": 979,
      "ypl": 980,
      "gmj": 981,
      "rmi̯": 982,
      "ḏꜥm": 983,
      "jji̯": 984,
      "bb": 985,
      "ft": 986,
      "rꜣ": 987,
      "nsr": 988,
      "ẖnn": 989,
      "ḫmt": 990,
      "ꜣṯ": 991,
      "##mm": 992,
      "mnḥ": 993,
      "srf": 994,
      "ḥḏi̯": 995,
      "rwj": 996,
      "ḥzz": 997,
      "zwn": 998,
      "kꜣp": 999,
      "jꜥb": 1000,
      "rf": 1001,
      "ẖdb": 1002,
      "stḫ": 1003,
      "jꜥi̯": 1004,
      "ḥqr": 1005,
      "##ḳꜣ": 1006,
      "ḥmi̯": 1007,
      "tw≡k": 1008,
      "ḏrḏ": 1009,
      "ḏrw": 1010,
      "swḥ": 1011,
      "##ꜣw": 1012,
      "##hn": 1013,
      "rkḥ": 1014,
      "ḥq": 1015,
      "jty": 1016,
      "mnmn": 1017,
      "wi̯": 1018,
      "ṯḥ": 1019,
      "smnḫ": 1020,
      "wꜥt": 1021,
      "sšd": 1022,
      "rḫt": 1023,
      "rsj": 1024,
      "kꜣ≡j": 1025,
      "sḏb": 1026,
      "ḫfti̯": 1027,
      "wꜣš": 1028,
      "ṯnw": 1029,
      "gmm": 1030,
      "wdu": 1031,
      "mi̯": 1032,
      "ḏf": 1033,
      "šnḏ": 1034,
      "ḥsmn": 1035,
      "zwr": 1036,
      "ṯbw": 1037,
      "ꜥḏꜣ": 1038,
      "snd": 1039,
      "swḏ": 1040,
      "300": 1041,
      "##dn": 1042,
      "sšp": 1043,
      "ḫsb": 1044,
      "ṯrp": 1045,
      "jꜣm": 1046,
      "sṯi̯": 1047,
      "gn": 1048,
      "knm": 1049,
      "ḥfꜣ": 1050,
      "ḳn": 1051,
      "ṯsi̯": 1052,
      "##wj": 1053,
      "msw": 1054,
      "btꜣ": 1055,
      "hh": 1056,
      "ḥy": 1057,
      "##šꜣ": 1058,
      "rnn": 1059,
      "smḥ": 1060,
      "bꜣq": 1061,
      "bꜣbꜣ": 1062,
      "zẖꜣw": 1063,
      "jsṯ": 1064,
      "ṯb": 1065,
      "ḫpp": 1066,
      "srwḫ": 1067,
      "ššj": 1068,
      "mẖn": 1069,
      "mꜣj": 1070,
      "ꜥꜣm": 1071,
      "ḫnr": 1072,
      "ḥsꜣ": 1073,
      "ꞽwi̯": 1074,
      "##qn": 1075,
      "snw": 1076,
      "jꜣḫ": 1077,
      "ꜥnḏ": 1078,
      "dꜣb": 1079,
      "pd": 1080,
      "##ḥs": 1081,
      "snn": 1082,
      "snsn": 1083,
      "ꜥꜣb": 1084,
      "##tm": 1085,
      "stw": 1086,
      "sḏd": 1087,
      "šnn": 1088,
      "jdw": 1089,
      "nhꜣ": 1090,
      "##šm": 1091,
      "##ṯn": 1092,
      "##rjw": 1093,
      "ḥts": 1094,
      "qnj": 1095,
      "60": 1096,
      "mnš": 1097,
      "nmḥ": 1098,
      "qnb": 1099,
      "pfy": 1100,
      "dwn": 1101,
      "sqr": 1102,
      "thꜣ": 1103,
      "kꜣ≡f": 1104,
      "wni̯": 1105,
      "ḥꜣm": 1106,
      "nḥr": 1107,
      "ꜣtp": 1108,
      "ꜣtf": 1109,
      "ꞽz": 1110,
      "swn": 1111,
      "ḥwꜣ": 1112,
      "šꜣs": 1113,
      "wdp": 1114,
      "mꜥḥ": 1115,
      "npꜣ": 1116,
      "40": 1117,
      "bꜥ": 1118,
      "sꞽr": 1119,
      "tw≡": 1120,
      "qnqn": 1121,
      "ẖr": 1122,
      "swꜣḏ": 1123,
      "ḥpt": 1124,
      "kr": 1125,
      "jnḥ": 1126,
      "mꜣs": 1127,
      "wrd": 1128,
      "jmꜣḫw": 1129,
      "hru̯": 1130,
      "n≡j": 1131,
      "mnjw": 1132,
      "smtr": 1133,
      "ḫmn": 1134,
      "ꞽyi̯": 1135,
      "fḫ": 1136,
      "šbn": 1137,
      "jmw": 1138,
      "mjz": 1139,
      "pnꜥ": 1140,
      "psš": 1141,
      "jpn": 1142,
      "ꜥbš": 1143,
      "nbj": 1144,
      "tpy": 1145,
      "ḏḥwty": 1146,
      "sgnn": 1147,
      "hp": 1148,
      "sꞽ": 1149,
      "ꜣq": 1150,
      "##dj": 1151,
      "ḥnmm": 1152,
      "ꜥnt": 1153,
      "jꜥr": 1154,
      "ḥzmn": 1155,
      "jzf": 1156,
      "##du": 1157,
      "##zi̯": 1158,
      "snm": 1159,
      "wꜥw": 1160,
      "ṯꜣz": 1161,
      "rnpi̯": 1162,
      "thi̯": 1163,
      "kn": 1164,
      "##ḏw": 1165,
      "sšꜣ": 1166,
      "ḥsq": 1167,
      "wḫꜣḫ": 1168,
      "mꜣq": 1169,
      "nnšm": 1170,
      "sꜣb": 1171,
      "bwpw": 1172,
      "ꞽmi̯": 1173,
      "nq": 1174,
      "ꞽḥ": 1175,
      "##fj": 1176,
      "prj": 1177,
      "ḥwn": 1178,
      "sꜣq": 1179,
      "sbjw": 1180,
      "ꜥrr": 1181,
      "nkt": 1182,
      "sẖꜣ": 1183,
      "ꜥwn": 1184,
      "šmm": 1185,
      "sṯj": 1186,
      "jdꜣ": 1187,
      "ḫtꜣ": 1188,
      "mḥn": 1189,
      "mtj": 1190,
      "ḏꜥw": 1191,
      "ṯry": 1192,
      "kfꜣ": 1193,
      "ṯm": 1194,
      "ꜥꜥ": 1195,
      "jt≡f": 1196,
      "ḥꜥp": 1197,
      "jḫm": 1198,
      "dḥ": 1199,
      "jk": 1200,
      "pp": 1201,
      "rp": 1202,
      "ꜣi̯": 1203,
      "bꜣg": 1204,
      "stꜣ": 1205,
      "msḥ": 1206,
      "ḫmi̯": 1207,
      "jḥy": 1208,
      "ꜥbꜣ": 1209,
      "ꞽp": 1210,
      "jwd": 1211,
      "wḏi̯": 1212,
      "ḏꜣm": 1213,
      "ḏrj": 1214,
      "nḫḫ": 1215,
      "pfj": 1216,
      "znf": 1217,
      "snꜥꜥ": 1218,
      "swꜥb": 1219,
      "hm": 1220,
      "n≡f": 1221,
      "ḥzw": 1222,
      "##gb": 1223,
      "ḥꜣw": 1224,
      "mnḏ": 1225,
      "tmm": 1226,
      "qꜣr": 1227,
      "ḫwj": 1228,
      "ftk": 1229,
      "ḥḳꜣ": 1230,
      "ḫy": 1231,
      "ṯt": 1232,
      "jrf": 1233,
      "wnš": 1234,
      "ḥnn": 1235,
      "ṯtj": 1236,
      "##hm": 1237,
      "wḥꜣ": 1238,
      "mḏd": 1239,
      "11": 1240,
      "hb": 1241,
      "jg": 1242,
      "rḥ": 1243,
      "tf": 1244,
      "ḏnn": 1245,
      "ṯp": 1246,
      "ꜣꜥꜥ": 1247,
      "##ṯi̯": 1248,
      "snj": 1249,
      "ḫfꜥ": 1250,
      "wnmy": 1251,
      "nhm": 1252,
      "nꞽ": 1253,
      "šwy": 1254,
      "zni̯": 1255,
      "ꜥḫm": 1256,
      "snfr": 1257,
      "mf": 1258,
      "ng": 1259,
      "ry": 1260,
      "rj": 1261,
      "jms": 1262,
      "ḏdi̯": 1263,
      "jtḥ": 1264,
      "sdꜣ": 1265,
      "nhp": 1266,
      "nšm": 1267,
      "ḫdi̯": 1268,
      "mꜥḥꜥ": 1269,
      "pꞽ": 1270,
      "ztj": 1271,
      "ꞽd": 1272,
      "jbj": 1273,
      "nḏnḏ": 1274,
      "mri̯≡s": 1275,
      "rwd": 1276,
      "jnpw": 1277,
      "gꜣb": 1278,
      "ssn": 1279,
      "knmw": 1280,
      "gḥs": 1281,
      "ꜥḳ": 1282,
      "##ti̯": 1283,
      "mss": 1284,
      "ꜥntj": 1285,
      "sqdi̯": 1286,
      "sh": 1287,
      "w≡f": 1288,
      "ꜣd": 1289,
      "mnꜥ": 1290,
      "spḥ": 1291,
      "gꜣu̯": 1292,
      "qmy": 1293,
      "##ꜥm": 1294,
      "šnb": 1295,
      "ṯnn": 1296,
      "15": 1297,
      "ḥj": 1298,
      "ḥfn": 1299,
      "##šf": 1300,
      "pꜣq": 1301,
      "jns": 1302,
      "ḥꜣq": 1303,
      "jbḥ": 1304,
      "nwn": 1305,
      "qdš": 1306,
      "jdn": 1307,
      "ꞽnk": 1308,
      "ꞽwn": 1309,
      "mḫꜣ": 1310,
      "tdu": 1311,
      "ꜥf": 1312,
      "##sꜣ": 1313,
      "##ḫt": 1314,
      "jnm": 1315,
      "wꜥn": 1316,
      "wḏḥ": 1317,
      "rḏw": 1318,
      "nḏr": 1319,
      "ꜥmꜣ": 1320,
      "ḥꜣp": 1321,
      "šrjw": 1322,
      "sst": 1323,
      "šfšf": 1324,
      "mnṯw": 1325,
      "pšn": 1326,
      "ṯpḥ": 1327,
      "dg": 1328,
      "i͗": 1329,
      "nkn": 1330,
      "pl≡f": 1331,
      "kꜣr": 1332,
      "nwḥ": 1333,
      "sḥtm": 1334,
      "ꞽrr": 1335,
      "gmḥ": 1336,
      "ntr": 1337,
      "qmḥ": 1338,
      "ny": 1339,
      "wm": 1340,
      "mnd": 1341,
      "mjtt": 1342,
      "šsr": 1343,
      "šꜥy": 1344,
      "smsw": 1345,
      "wbd": 1346,
      "jrṯ": 1347,
      "ḫsr": 1348,
      "ꜥrḳ": 1349,
      "sft": 1350,
      "mḏꜣy": 1351,
      "sgr": 1352,
      "fꞽ": 1353,
      "tkꜣ": 1354,
      "jstw": 1355,
      "swtḫ": 1356,
      "ḏnḥ": 1357,
      "hd": 1358,
      "kš": 1359,
      "rwi̯": 1360,
      "šnd": 1361,
      "srq": 1362,
      "ẖnj": 1363,
      "jṯꜣy": 1364,
      "dns": 1365,
      "jgr": 1366,
      "zm": 1367,
      "ꜥtḫ": 1368,
      "##ms": 1369,
      "mꜣn": 1370,
      "zꜣꜣ": 1371,
      "ḫnz": 1372,
      "ḫti̯": 1373,
      "ṯꜣty": 1374,
      "špsy": 1375,
      "smꜣm": 1376,
      "swtj": 1377,
      "jtj≡f": 1378,
      "##≡sn": 1379,
      "bdn": 1380,
      "sqb": 1381,
      "smḥy": 1382,
      "13": 1383,
      "py": 1384,
      "ꞽṯi̯": 1385,
      "##bs": 1386,
      "##ꜥr": 1387,
      "jwtn": 1388,
      "sni̯": 1389,
      "mꜣt": 1390,
      "ḥꜣ≡f": 1391,
      "nni̯": 1392,
      "šmꜣ": 1393,
      "sbḥ": 1394,
      "jsk": 1395,
      "nmj": 1396,
      "šj": 1397,
      "ḳr": 1398,
      "sꜣḏ": 1399,
      "rmw": 1400,
      "qꜣs": 1401,
      "bdš": 1402,
      "dw": 1403,
      "hj": 1404,
      "mh": 1405,
      "zḫ": 1406,
      "ṯnf": 1407,
      "šꜣšꜣ": 1408,
      "jdm": 1409,
      "500": 1410,
      "jq": 1411,
      "nz": 1412,
      "zzj": 1413,
      "ḥwt": 1414,
      "ḫj": 1415,
      "jnq": 1416,
      "mḥi̯": 1417,
      "ḫprj": 1418,
      "sꜥm": 1419,
      "sṯz": 1420,
      "ssm": 1421,
      "nꜥi̯": 1422,
      "mntf": 1423,
      "jnb≡f": 1424,
      "kt": 1425,
      "wg": 1426,
      "ꜣgb": 1427,
      "jwḥ": 1428,
      "ḏꜣy": 1429,
      "špsj": 1430,
      "mšr": 1431,
      "ḏꜥr": 1432,
      "pi̯": 1433,
      "sqꜣ": 1434,
      "wṱ": 1435,
      "ṯtw": 1436,
      "ꜣkr": 1437,
      "##ḥꜣ": 1438,
      "nwy": 1439,
      "šnṯ": 1440,
      "srd": 1441,
      "mtn": 1442,
      "ḥtrj": 1443,
      "tw≡tw": 1444,
      "zt": 1445,
      "≡s": 1446,
      "nṯri̯": 1447,
      "sws": 1448,
      "smw": 1449,
      "ḫprr": 1450,
      "ṯni̯": 1451,
      "ṯꜣj": 1452,
      "gꜣy": 1453,
      "srwḏ": 1454,
      "##sw": 1455,
      "ḫꜣy": 1456,
      "sḏfꜣ": 1457,
      "srḫ": 1458,
      "jwnw": 1459,
      "wšd": 1460,
      "dndn": 1461,
      "rmni̯": 1462,
      "ḫbs": 1463,
      "ḫsbd": 1464,
      "by": 1465,
      "tb": 1466,
      "ꜣz": 1467,
      "twr": 1468,
      "twk": 1469,
      "nnj": 1470,
      "ḥwr": 1471,
      "šꜣw": 1472,
      "ꜥnn": 1473,
      "sꜥꜣ": 1474,
      "nšnj": 1475,
      "fnd": 1476,
      "ngꜣ": 1477,
      "ḳꜣ": 1478,
      "ꞽḫ": 1479,
      "##ḳr": 1480,
      "twn": 1481,
      "swr": 1482,
      "zꜣṯ": 1483,
      "ntw": 1484,
      "wšꜥ": 1485,
      "qmꜣm": 1486,
      "80": 1487,
      "bḥn": 1488,
      "ḫbꜣ": 1489,
      "##ny": 1490,
      "ḫnw": 1491,
      "sbq": 1492,
      "tmꜣ": 1493,
      "mꜥnḏ": 1494,
      "mrr≡j": 1495,
      "ꜥwꜣi̯": 1496,
      "ḥqt": 1497,
      "ṯḥnw": 1498,
      "pgꜣ": 1499,
      "tš": 1500,
      "št": 1501,
      "##ꜣḏ": 1502,
      "tjy": 1503,
      "tpnn": 1504,
      "msḫn": 1505,
      "nwr": 1506,
      "jꜥꜣw": 1507,
      "wꞽꜣ": 1508,
      "mḥnk": 1509,
      "btj": 1510,
      "tk": 1511,
      "wh": 1512,
      "zꞽ": 1513,
      "##ḫb": 1514,
      "sḫd": 1515,
      "hꜣn": 1516,
      "mds": 1517,
      "bnw": 1518,
      "ḏs≡f": 1519,
      "sꜥꜣi̯": 1520,
      "ẖꜣk": 1521,
      "jšs": 1522,
      "wršu̯": 1523,
      "sqꜣi̯": 1524,
      "25": 1525,
      "70": 1526,
      "hbn": 1527,
      "ẖꜥ": 1528,
      "ꞽꜥ": 1529,
      "##rr": 1530,
      "ḏdw": 1531,
      "wnḏ": 1532,
      "msꜣḏ": 1533,
      "sꜣꜣ": 1534,
      "sḥw": 1535,
      "bnbn": 1536,
      "qꜣj": 1537,
      "jꜥꜣ": 1538,
      "šzm": 1539,
      "mꜥw": 1540,
      "zjf": 1541,
      "thm": 1542,
      "fꜣj": 1543,
      "14": 1544,
      "bz": 1545,
      "dhn": 1546,
      "pḫ": 1547,
      "whꜣ": 1548,
      "ym": 1549,
      "zbn": 1550,
      "pꜣu̯": 1551,
      "ḏdḥ": 1552,
      "sḥm": 1553,
      "ꜣms": 1554,
      "bꜥḥi̯": 1555,
      "ꜣṯp": 1556,
      "wmt": 1557,
      "jhꜣ": 1558,
      "mṯn": 1559,
      "ni̯": 1560,
      "##sj": 1561,
      "##mw": 1562,
      "##wy": 1563,
      "wꜥf": 1564,
      "mnn": 1565,
      "wꜣw": 1566,
      "nww": 1567,
      "qrr": 1568,
      "nꜥꜥ": 1569,
      "tḫb": 1570,
      "bbj": 1571,
      "sqbb": 1572,
      "ꜣzḫ": 1573,
      "nd": 1574,
      "zf": 1575,
      "ẖp": 1576,
      "srs": 1577,
      "sbi̯": 1578,
      "zpꜣ": 1579,
      "jptn": 1580,
      "skr": 1581,
      "sdb": 1582,
      "sfn": 1583,
      "ꞽꜣb": 1584,
      "sz": 1585,
      "ṱ≡k": 1586,
      "nfw": 1587,
      "swꜣi̯": 1588,
      "smḫ": 1589,
      "jbꜣ": 1590,
      "mḥy": 1591,
      "bjtj": 1592,
      "ḥzj": 1593,
      "sdm": 1594,
      "wꜣgš": 1595,
      "ꜣmj": 1596,
      "rq": 1597,
      "ri̯": 1598,
      "kꜣy": 1599,
      "ḥꜣy": 1600,
      "sšn": 1601,
      "hꜣj": 1602,
      "ṯnj": 1603,
      "skm": 1604,
      "mzḥ": 1605,
      "rrm": 1606,
      "pds": 1607,
      "šwyty": 1608,
      "ktḫ": 1609,
      "ḏꞽ": 1610,
      "ḏwi̯": 1611,
      "ḫpd": 1612,
      "##tꞽ": 1613,
      "snk": 1614,
      "ḫni̯": 1615,
      "wtt": 1616,
      "šny": 1617,
      "sḥri̯": 1618,
      "ꜣbb": 1619,
      "njꜣ": 1620,
      "ꜥrḳy": 1621,
      "fqꜣ": 1622,
      "hnn": 1623,
      "qjs": 1624,
      "snḥ": 1625,
      "hꜣꜣ": 1626,
      "nwd": 1627,
      "pjpj": 1628,
      "ḥꜥpi̯": 1629,
      "hmhm": 1630,
      "400": 1631,
      "bḫn": 1632,
      "jmḥ": 1633,
      "mnꞽ": 1634,
      "sꜣr": 1635,
      "ḫꜥw": 1636,
      "nmꜥ": 1637,
      "dwꜣw": 1638,
      "jwnꜣ": 1639,
      "gꜣw": 1640,
      "swꜣš": 1641,
      "ḥmww": 1642,
      "nꜥr": 1643,
      "ẖkrt": 1644,
      "ꜥwı͗": 1645,
      "23": 1646,
      "jfd": 1647,
      "mḫ": 1648,
      "si̯": 1649,
      "šwꜣ": 1650,
      "##gs": 1651,
      "kꜣi̯": 1652,
      "zꜣt": 1653,
      "wꜣḫ": 1654,
      "sḫs": 1655,
      "sry": 1656,
      "ꜣbi̯": 1657,
      "jsj": 1658,
      "ḥꜥpy": 1659,
      "qꜣw": 1660,
      "ꜥḥꜣwty": 1661,
      "šmsw": 1662,
      "pzḥ": 1663,
      "bḥz": 1664,
      "ꜥmꜣm": 1665,
      "bḫ": 1666,
      "hy": 1667,
      "##zš": 1668,
      "##jꜣ": 1669,
      "snq": 1670,
      "kꜣmn": 1671,
      "mrrj": 1672,
      "smy": 1673,
      "jmꜣḫwt": 1674,
      "nwi̯": 1675,
      "šnt": 1676,
      "nḫtj": 1677,
      "sꜥr": 1678,
      "sṯp": 1679,
      "wdd": 1680,
      "wdpw": 1681,
      "šmꜥw": 1682,
      "qni̯": 1683,
      "jdr": 1684,
      "tꞽw": 1685,
      "ꞽꜣwi̯": 1686,
      "nrw": 1687,
      "wṯs": 1688,
      "ꜣh": 1689,
      "ꜣ≡j": 1690,
      "ꜥẖ": 1691,
      "nbd": 1692,
      "nbt": 1693,
      "tjḥn": 1694,
      "kꜣj": 1695,
      "ḏdj": 1696,
      "ḥꜣi̯": 1697,
      "mjw": 1698,
      "msk": 1699,
      "jꜣk": 1700,
      "sšsꜣ": 1701,
      "gmꜣ": 1702,
      "qnd": 1703,
      "sqdd": 1704,
      "sy": 1705,
      "w≡s": 1706,
      "ḥfd": 1707,
      "ḫwꜣ": 1708,
      "##ni̯": 1709,
      "##ṯꜣ": 1710,
      "##ṯw": 1711,
      "tꜣḥ": 1712,
      "ḫꜣḫ": 1713,
      "wꜣwꜣ": 1714,
      "jꜣy": 1715,
      "sꜣi̯": 1716,
      "šnf": 1717,
      "jsf": 1718,
      "psn": 1719,
      "ḏwjw": 1720,
      "ḫꜥꜥ": 1721,
      "sꜥq": 1722,
      "dmꜣ": 1723,
      "šdd": 1724,
      "jzj": 1725,
      "ḏnd": 1726,
      "bḏ": 1727,
      "dḏw": 1728,
      "fr": 1729,
      "ꜥfn": 1730,
      "nbi̯": 1731,
      "ḫnp": 1732,
      "hrp": 1733,
      "bnn": 1734,
      "sḫmḫ": 1735,
      "sꜥb": 1736,
      "psḏn": 1737,
      "sjꜥ": 1738,
      "jtj≡s": 1739,
      "ḥknw": 1740,
      "sḫnti̯": 1741,
      "ḫsbḏ": 1742,
      "17": 1743,
      "br": 1744,
      "gnn": 1745,
      "kb": 1746,
      "##ṯt": 1747,
      "mꜣḫ": 1748,
      "wrj": 1749,
      "bꜣqꜣ": 1750,
      "sty": 1751,
      "ꜥḥꜥw": 1752,
      "sḥd": 1753,
      "ntsn": 1754,
      "šsm": 1755,
      "šꜣb": 1756,
      "jzn": 1757,
      "mꜥbꜣ": 1758,
      "ṯzm": 1759,
      "i̯≡f": 1760,
      "ḥpj": 1761,
      "nqꜥ": 1762,
      "nṯ": 1763,
      "ḥf": 1764,
      "nby": 1765,
      "snṯ": 1766,
      "jnw": 1767,
      "ꜥꜣꜥ": 1768,
      "wstn": 1769,
      "pwn": 1770,
      "jbi̯": 1771,
      "ḥwrw": 1772,
      "ꜣbḫ": 1773,
      "špsi̯": 1774,
      "ḥzꜣ": 1775,
      "šmꜥy": 1776,
      "ḥtj": 1777,
      "wnmj": 1778,
      "jꜣrr": 1779,
      "ršw": 1780,
      "ḥmꜣy": 1781,
      "srwd": 1782,
      "21": 1783,
      "22": 1784,
      "bq": 1785,
      "ꜣr": 1786,
      "ꞽꞽ": 1787,
      "##wı͗": 1788,
      "##wtj": 1789,
      "wsf": 1790,
      "ḫꜣrw": 1791,
      "sbn": 1792,
      "rdy": 1793,
      "jsw": 1794,
      "ntj": 1795,
      "jṯj": 1796,
      "wšꜣ": 1797,
      "dꜣj": 1798,
      "sẖkr": 1799,
      "ꞽtꞽ": 1800,
      "jwꜥꜥ": 1801,
      "ṯsm": 1802,
      "wbḫ": 1803,
      "dḥr": 1804,
      "mfk": 1805,
      "ẖꜥq": 1806,
      "ḫwꜣw": 1807,
      "qj": 1808,
      "ꞽš": 1809,
      "ḥrr": 1810,
      "ḥtp≡s": 1811,
      "ḫꜣm": 1812,
      "ḫnj": 1813,
      "jbw": 1814,
      "nꜣj": 1815,
      "sꜣt": 1816,
      "bjty": 1817,
      "wpwty": 1818,
      "rwhꜣ": 1819,
      "rsy": 1820,
      "sjqr": 1821,
      "ḫwy": 1822,
      "bṯ": 1823,
      "ṯj": 1824,
      "ꜣny": 1825,
      "ꞽwꜣ": 1826,
      "##zn": 1827,
      "nsb": 1828,
      "mꜣḥ": 1829,
      "stt": 1830,
      "srj": 1831,
      "ntt": 1832,
      "ꜥšm": 1833,
      "šꜣj": 1834,
      "mꜥr": 1835,
      "swsḫ": 1836,
      "jhꜣy": 1837,
      "18": 1838,
      "gj": 1839,
      "jḳr": 1840,
      "mẖr": 1841,
      "m≡k": 1842,
      "ptp": 1843,
      "qrj": 1844,
      "shꜣ": 1845,
      "šṯ": 1846,
      "##≡n": 1847,
      "##ṯs": 1848,
      "ẖry": 1849,
      "ḥwj": 1850,
      "msq": 1851,
      "rḫs": 1852,
      "gmy": 1853,
      "šww": 1854,
      "ꜥnd": 1855,
      "ꜥnw": 1856,
      "jꜥw": 1857,
      "ꜥry": 1858,
      "ꜥḏn": 1859,
      "wḫr": 1860,
      "ḏꜥb": 1861,
      "šfd": 1862,
      "qbb": 1863,
      "mfkꜣ": 1864,
      "ḳrḥ": 1865,
      "ptpt": 1866,
      "krjw": 1867,
      "mḫn": 1868,
      "ndj": 1869,
      "sgꜣ": 1870,
      "ḳnw": 1871,
      "ṯtf": 1872,
      "ḥr≡f": 1873,
      "ḫnn": 1874,
      "bꜣb": 1875,
      "msy": 1876,
      "wḏj": 1877,
      "jꜣꜣ": 1878,
      "šntj": 1879,
      "nḫw": 1880,
      "jꜥn": 1881,
      "qnjw": 1882,
      "nhi̯": 1883,
      "dꜣjw": 1884,
      "ḫbi̯": 1885,
      "sḥwr": 1886,
      "600": 1887,
      "dq": 1888,
      "ftt": 1889,
      "jkn": 1890,
      "mzw": 1891,
      "wzš": 1892,
      "zr": 1893,
      "ḏt": 1894,
      "ꜣt": 1895,
      "ꜥfꜣ": 1896,
      "ꜥḳꜣ": 1897,
      "##ḳn": 1898,
      "nfꜣ": 1899,
      "nfrt": 1900,
      "ḏdf": 1901,
      "wꜥtt": 1902,
      "rnsj": 1903,
      "jmnt": 1904,
      "wꜣb": 1905,
      "smt": 1906,
      "wtṯ": 1907,
      "ḥnḥn": 1908,
      "ḫtḫt": 1909,
      "ḫntꞽ": 1910,
      "ḏꜣꜣ": 1911,
      "hꜣṯs": 1912,
      "ḏr≡f": 1913,
      "ṯnr": 1914,
      "nḥꜣ": 1915,
      "ḥss": 1916,
      "špt": 1917,
      "jptw": 1918,
      "ḫmꜥ": 1919,
      "ḥzy": 1920,
      "ḥḥj": 1921,
      "wyt": 1922,
      "rwḏw": 1923,
      "znb": 1924,
      "šbb": 1925,
      "sḫꜣw": 1926,
      "ḫꜣwj": 1927,
      "ḥṯꜣ": 1928,
      "ḥmsj": 1929,
      "2000": 1930,
      "ḳnḳn": 1931,
      "nhꜣm": 1932,
      "byt": 1933,
      "700": 1934,
      "bi̯": 1935,
      "dš": 1936,
      "nri̯": 1937,
      "sjw": 1938,
      "t≡s": 1939,
      "ꜣꜣ": 1940,
      "ꞽqr": 1941,
      "##ḥj": 1942,
      "##ḫj": 1943,
      "##ṯj": 1944,
      "kꜣw": 1945,
      "nsy": 1946,
      "mrt": 1947,
      "wnf": 1948,
      "wsj": 1949,
      "wsfꜣ": 1950,
      "ḫꜣb": 1951,
      "jꜣq": 1952,
      "ḫntš": 1953,
      "šnty": 1954,
      "nḥi̯": 1955,
      "gsꜣ": 1956,
      "sbꜣy": 1957,
      "nhzi̯": 1958,
      "snṯrj": 1959,
      "ꜥḫi̯": 1960,
      "twꜣw": 1961,
      "##ḥwj": 1962,
      "bꞽꜣ": 1963,
      "ṯtṯt": 1964,
      "szf": 1965,
      "bt": 1966,
      "bsi̯": 1967,
      "pšr": 1968,
      "rpw": 1969,
      "wgꜣ": 1970,
      "yn": 1971,
      "š≡f": 1972,
      "ḥr≡s": 1973,
      "nbḏ": 1974,
      "pꜣḏ": 1975,
      "wnḏw": 1976,
      "mnq": 1977,
      "mntw": 1978,
      "ḥnḳ": 1979,
      "ḫtjw": 1980,
      "pnq": 1981,
      "nwḏ": 1982,
      "ṯnt": 1983,
      "sḥꜣ": 1984,
      "spi̯": 1985,
      "spẖr": 1986,
      "njm": 1987,
      "njwy": 1988,
      "jti̯≡f": 1989,
      "šrr": 1990,
      "msḏḏ": 1991,
      "mmj": 1992,
      "ꜣmm": 1993,
      "bsk": 1994,
      "nḥsy": 1995,
      "kfi̯": 1996,
      "snwḫ": 1997,
      "shr": 1998,
      "ḥjp": 1999,
      "wṱḥ": 2000,
      "24": 2001,
      "bgꜣ": 2002,
      "qw": 2003,
      "sẖr": 2004,
      "ḳnj": 2005,
      "ꜣš": 2006,
      "ꞽꜥb": 2007,
      "snnj": 2008,
      "kꜣš": 2009,
      "ḥny": 2010,
      "ꜣḫꜣḫ": 2011,
      "sḫty": 2012,
      "ḫnty": 2013,
      "mḥj": 2014,
      "ḏꜣjs": 2015,
      "tnr": 2016,
      "tni̯": 2017,
      "mri̯≡f": 2018,
      "psḥ": 2019,
      "šꜣms": 2020,
      "qrꜥ": 2021,
      "ḥty": 2022,
      "ꜥrꜥr": 2023,
      "ẖnmt": 2024,
      "ḫwd": 2025,
      "ꞽsṯ": 2026,
      "tḫtḫ": 2027,
      "26": 2028,
      "90": 2029,
      "bḏꜣ": 2030,
      "bkꜣ": 2031,
      "gw": 2032,
      "npl": 2033,
      "zmn": 2034,
      "ḥpy": 2035,
      "ꜣj": 2036,
      "##sk": 2037,
      "##tb": 2038,
      "##fy": 2039,
      "plt": 2040,
      "snt": 2041,
      "jny": 2042,
      "ꜥꜣy": 2043,
      "ḏdd": 2044,
      "ḫꜣr": 2045,
      "bꜣ≡f": 2046,
      "mḥꜥ": 2047,
      "bjꜣi̯": 2048,
      "jyj": 2049,
      "rḫy": 2050,
      "ṯꜣr": 2051,
      "nḫꜣ": 2052,
      "ḥsj": 2053,
      "bnrj": 2054,
      "wꜣḏy": 2055,
      "ꜥqw": 2056,
      "qdj": 2057,
      "qnw": 2058,
      "jdi̯": 2059,
      "wšn": 2060,
      "mkḥꜣ": 2061,
      "ꜥmꜥ": 2062,
      "sfḫḫ": 2063,
      "ššꞽ": 2064,
      "ksb": 2065,
      "rṯn": 2066,
      "zy": 2067,
      "ꜥs": 2068,
      "##sr": 2069,
      "##ww": 2070,
      "##hb": 2071,
      "nṯr≡f": 2072,
      "pry": 2073,
      "mꜣjw": 2074,
      "wnwn": 2075,
      "swnw": 2076,
      "mjtr": 2077,
      "nꜣw": 2078,
      "sꜣu̯": 2079,
      "ḏsw": 2080,
      "ꜥnq": 2081,
      "dmd": 2082,
      "jḥw": 2083,
      "drp": 2084,
      "ꜥbꜥ": 2085,
      "ḏbw": 2086,
      "ssw": 2087,
      "nšn": 2088,
      "zḫni̯": 2089,
      "msdi̯": 2090,
      "fꜣy": 2091,
      "sḫni̯": 2092,
      "ḥyꜣ": 2093,
      "bꜣgi̯": 2094,
      "kꜣry": 2095,
      "19": 2096,
      "dqr": 2097,
      "fnḫ": 2098,
      "hw": 2099,
      "tı͗": 2100,
      "wı͗": 2101,
      "zk": 2102,
      "zṯ": 2103,
      "zi̯": 2104,
      "ṯf": 2105,
      "ꜣꜥ": 2106,
      "ꜥp": 2107,
      "##ꜥi̯": 2108,
      "snjw": 2109,
      "mꜣtj": 2110,
      "jtw": 2111,
      "jmny": 2112,
      "ḥnt": 2113,
      "msn": 2114,
      "wḏḏ": 2115,
      "nwj": 2116,
      "tnm": 2117,
      "ṯꜣm": 2118,
      "jsd": 2119,
      "psg": 2120,
      "ḥsw": 2121,
      "jpp": 2122,
      "ḫmnw": 2123,
      "jdḥ": 2124,
      "jdnw": 2125,
      "nhj": 2126,
      "ẖn": 2127,
      "swꜣḥ": 2128,
      "nꜥw": 2129,
      "zjn": 2130,
      "msdd": 2131,
      "sgb": 2132,
      "ẖsj": 2133,
      "ṯḥḥw": 2134,
      "ꜥḳw": 2135,
      "27": 2136,
      "kı͗": 2137,
      "n≡s": 2138,
      "zz": 2139,
      "šy": 2140,
      "##ꜣy": 2141,
      "ꜥnḫ≡s": 2142,
      "ḥꜣtt": 2143,
      "bꜣw": 2144,
      "mj≡n": 2145,
      "stwt": 2146,
      "ḥwy": 2147,
      "msj": 2148,
      "ꜥḥwty": 2149,
      "sšnj": 2150,
      "nwꜣ": 2151,
      "tnj": 2152,
      "ḫꜥm": 2153,
      "šwj": 2154,
      "qꜣꜣ": 2155,
      "qꜣy": 2156,
      "sꜥšꜣ": 2157,
      "bꜣkj": 2158,
      "ḏsrt": 2159,
      "ꜥḥꜣw": 2160,
      "ꞽbꞽ": 2161,
      "sḫti̯": 2162,
      "rwjꜣ": 2163,
      "sꞽꜣ": 2164,
      "dgm": 2165,
      "zḫz": 2166,
      "nzr": 2167,
      "bḫtn": 2168,
      "bzi̯": 2169,
      "gz": 2170,
      "nrjw": 2171,
      "rhn": 2172,
      "ʾw": 2173,
      "ḏm": 2174,
      "ḥdb": 2175,
      "##dꜣ": 2176,
      "##gn": 2177,
      "jwy": 2178,
      "tjꜣ": 2179,
      "sny": 2180,
      "pꜣi̯": 2181,
      "ḫry": 2182,
      "mꜣfd": 2183,
      "wrm": 2184,
      "mny": 2185,
      "tpḥ": 2186,
      "nnw": 2187,
      "sḫi̯": 2188,
      "mjs": 2189,
      "ḥww": 2190,
      "hrr": 2191,
      "ḥḏw": 2192,
      "ḥꜥw": 2193,
      "šꜣm": 2194,
      "šꜣy": 2195,
      "ꜥnḳ": 2196,
      "ḫtmw": 2197,
      "mnḫt": 2198,
      "ꜣsb": 2199,
      "swtwt": 2200,
      "ꞽwꜥ": 2201,
      "šfy": 2202,
      "ꜥmꜥꜥ": 2203,
      "ꜥmꜥm": 2204,
      "ršu̯": 2205,
      "kfꜥ": 2206,
      "bšt": 2207,
      "bꜥr": 2208,
      "wnšj": 2209,
      "ssnb": 2210,
      "bḥni̯": 2211,
      "tkk": 2212,
      "ꞽꜥi̯": 2213,
      "zfṯ": 2214,
      "gwꜣ": 2215,
      "jšr": 2216,
      "nwt": 2217,
      "tḥ": 2218,
      "tḫn": 2219,
      "ḏz": 2220,
      "##wš": 2221,
      "tjꜥm": 2222,
      "tjḥwj": 2223,
      "ḥm≡f": 2224,
      "mꜣr": 2225,
      "mꜣjr": 2226,
      "ꜥnḫw": 2227,
      "ḥꜣd": 2228,
      "wꜣm": 2229,
      "tpj": 2230,
      "mskꜣ": 2231,
      "hꜣkr": 2232,
      "sbtj": 2233,
      "wpj": 2234,
      "rsw": 2235,
      "qrf": 2236,
      "šꜥj": 2237,
      "šdj": 2238,
      "mꜥꜣ": 2239,
      "ꜥrꜥ": 2240,
      "ꜥbw": 2241,
      "ṯzz": 2242,
      "ẖꜣm": 2243,
      "nꜥy": 2244,
      "ḥpw": 2245,
      "ršj": 2246,
      "mꞽtr": 2247,
      "rrk": 2248,
      "jhw": 2249,
      "fnṯ": 2250,
      "bši̯": 2251,
      "dgꜣy": 2252,
      "jꜣḫi̯": 2253,
      "rḏww": 2254,
      "šꜥyd": 2255,
      "jšst": 2256,
      "bḏn": 2257,
      "28": 2258,
      "ki̯": 2259,
      "npr": 2260,
      "ḥd": 2261,
      "ḥtꜣ": 2262,
      "ṯmꜣ": 2263,
      "##qw": 2264,
      "##hd": 2265,
      "jws": 2266,
      "kꜣ≡": 2267,
      "ḏdꜣ": 2268,
      "swhꜣ": 2269,
      "ḥtpw": 2270,
      "ẖrty": 2271,
      "wt≡f": 2272,
      "ꜣḫt": 2273,
      "nnm": 2274,
      "sḫw": 2275,
      "mjt": 2276,
      "stm": 2277,
      "stkn": 2278,
      "msṯ": 2279,
      "jꜣl": 2280,
      "ḥḏn": 2281,
      "tms": 2282,
      "ḥsp": 2283,
      "ḏsf": 2284,
      "wꜣḏw": 2285,
      "wḥy": 2286,
      "dmy": 2287,
      "qrḥ": 2288,
      "sksk": 2289,
      "mꜥk": 2290,
      "nhd": 2291,
      "ẖty": 2292,
      "sfj": 2293,
      "dꜣjr": 2294,
      "tyt": 2295,
      "sswn": 2296,
      "ꞽtr": 2297,
      "bḥs": 2298,
      "nrꜣ": 2299,
      "jtrw": 2300,
      "mꜣwḏ": 2301,
      "120": 2302,
      "ḳnd": 2303,
      "dḥꜣ": 2304,
      "shꜣi̯": 2305,
      "ḥjḥj": 2306,
      "sꜥꜣm": 2307,
      "bqs": 2308,
      "29": 2309,
      "ffj": 2310,
      "hnj": 2311,
      "znn": 2312,
      "ḏnḏ": 2313,
      "ḳbw": 2314,
      "ṯi̯": 2315,
      "ꜥi̯": 2316,
      "##ḏi̯": 2317,
      "tjm": 2318,
      "tjj": 2319,
      "jnḏ": 2320,
      "rʾ≡f": 2321,
      "mꜣṯ": 2322,
      "ꜥnḫ≡f": 2323,
      "mntj": 2324,
      "tpꜣ": 2325,
      "ḥntꜣ": 2326,
      "ḏꜣs": 2327,
      "ṯntj": 2328,
      "rḫty": 2329,
      "sbt": 2330,
      "jtn≡f": 2331,
      "zpi̯": 2332,
      "nmnm": 2333,
      "qnn": 2334,
      "dꜣw": 2335,
      "sskꜣ": 2336,
      "mnjn": 2337,
      "ꞽꜣw": 2338,
      "thr": 2339,
      "thj": 2340,
      "sḫnt": 2341,
      "jꜥrꜥ": 2342,
      "ṯms": 2343,
      "ꞽpn": 2344,
      "tfnw": 2345,
      "zmy": 2346,
      "rrmi̯": 2347,
      "36": 2348,
      "n≡k": 2349,
      "qfn": 2350,
      "rrj": 2351,
      "ẖsi̯": 2352,
      "≡sn": 2353,
      "ꜣhꜣ": 2354,
      "ꜥgꜣ": 2355,
      "##mj": 2356,
      "##zꞽ": 2357,
      "##kt": 2358,
      "nbꜣ": 2359,
      "pꜣḫ": 2360,
      "kꜣrj": 2361,
      "ḥmn": 2362,
      "ḥtpj": 2363,
      "ḏi̯ḏi̯": 2364,
      "ḫꜣḫꜣ": 2365,
      "bꜣy": 2366,
      "ḥwꜥ": 2367,
      "wḏf": 2368,
      "tnn": 2369,
      "ptḫ": 2370,
      "sḥr": 2371,
      "ṯꜣs": 2372,
      "ḏww": 2373,
      "ꞽrp": 2374,
      "jwi̯≡s": 2375,
      "pḥty": 2376,
      "jzz": 2377,
      "sdbḥ": 2378,
      "gꜣs": 2379,
      "ḏḏ≡f": 2380,
      "ḥbsy": 2381,
      "mkj": 2382,
      "ṯsj": 2383,
      "hnqw": 2384,
      "ꞽꜣm": 2385,
      "ḫꜣwy": 2386,
      "bšꜣ": 2387,
      "nsrsr": 2388,
      "ꞽzzꞽ": 2389,
      "kns": 2390,
      "knz": 2391,
      "jqd": 2392,
      "swsr": 2393,
      "ẖpꜣ": 2394,
      "ḏndr": 2395,
      "swnwn": 2396,
      "bhꜣ": 2397,
      "hꞽ": 2398,
      "kp": 2399,
      "kḥ": 2400,
      "ksi̯": 2401,
      "kbs": 2402,
      "mhꜣ": 2403,
      "nꞽs": 2404,
      "ppj": 2405,
      "wšr": 2406,
      "ḏy": 2407,
      "ḏnj": 2408,
      "ḥk": 2409,
      "ḫbn": 2410,
      "##šb": 2411,
      "nb≡": 2412,
      "snti̯": 2413,
      "tꜣw": 2414,
      "kꜣꞽ": 2415,
      "wnj": 2416,
      "jttj": 2417,
      "ḫnš": 2418,
      "bꜣẖ": 2419,
      "wt≡s": 2420,
      "ꜣḫw": 2421,
      "ꜣḫty": 2422,
      "stn": 2423,
      "wjn": 2424,
      "sšwi̯": 2425,
      "sꜣwi̯": 2426,
      "mḥty": 2427,
      "ḫprw": 2428,
      "bjw": 2429,
      "rḏj": 2430,
      "ꜣby": 2431,
      "rdw": 2432,
      "jss": 2433,
      "jsb": 2434,
      "jsy": 2435,
      "jsq": 2436,
      "rnpj": 2437,
      "jwi̯≡f": 2438,
      "ꜥni̯": 2439,
      "dmꞽ": 2440,
      "jḥꜣ": 2441,
      "šdḥ": 2442,
      "sdj": 2443,
      "sdgꜣ": 2444,
      "smꜣwi̯": 2445,
      "smsm": 2446,
      "njk": 2447,
      "twtw": 2448,
      "jšš": 2449,
      "zšš": 2450,
      "zbj": 2451,
      "dnḥ": 2452,
      "ḫnfw": 2453,
      "bsbs": 2454,
      "wbs": 2455,
      "pšš": 2456,
      "jhy": 2457,
      "ꜣṯw": 2458,
      "ḏrḏr": 2459,
      "gngn": 2460,
      "ḳnb": 2461,
      "rpꜥ": 2462,
      "ꞽdw": 2463,
      "ꜥfḏ": 2464,
      "mḫnt": 2465,
      "ḏnḏr": 2466,
      "fw": 2467,
      "gbꜣ": 2468,
      "jpy": 2469,
      "khꜣ": 2470,
      "ktt": 2471,
      "mṯꜣ": 2472,
      "nrj": 2473,
      "rpy": 2474,
      "sjs": 2475,
      "tbn": 2476,
      "tḥn": 2477,
      "wf": 2478,
      "šty": 2479,
      "ꜣjr": 2480,
      "ꜣtj": 2481,
      "##dw": 2482,
      "##br": 2483,
      "##ks": 2484,
      "jw≡f": 2485,
      "snḫ": 2486,
      "nfrw": 2487,
      "swš": 2488,
      "ḫꜣd": 2489,
      "ḫꜣj": 2490,
      "wtw": 2491,
      "ḥnb": 2492,
      "wj≡f": 2493,
      "pnw": 2494,
      "ḏri̯": 2495,
      "nḏrjw": 2496,
      "wpp": 2497,
      "bwꜣ": 2498,
      "rmt": 2499,
      "bꜣkjw": 2500,
      "mšd": 2501,
      "šꜥw": 2502,
      "jḥj": 2503,
      "jḥty": 2504,
      "ꞽnn": 2505,
      "gbtw": 2506,
      "pfs": 2507,
      "njnj": 2508,
      "tyw": 2509,
      "ḏꜥꜥ": 2510,
      "ssꜣi̯": 2511,
      "zmꜣm": 2512,
      "ẖnmw": 2513,
      "zšn": 2514,
      "ḫbḫb": 2515,
      "fdq": 2516,
      "ꜣmꜥ": 2517,
      "mꜣwj": 2518,
      "kkw": 2519,
      "fnt": 2520,
      "ṯḥḥ": 2521,
      "ḏfḏ": 2522,
      "sndu": 2523,
      "tw≡n": 2524,
      "jkb": 2525,
      "jkm": 2526,
      "ꜥff": 2527,
      "wgg": 2528,
      "sḥmi̯": 2529,
      "sḫsḫ": 2530,
      "bjwk": 2531,
      "37": 2532,
      "800": 2533,
      "dḫ": 2534,
      "djw": 2535,
      "fṯ": 2536,
      "htj": 2537,
      "ji̯": 2538,
      "pg": 2539,
      "pqr": 2540,
      "qꜥ": 2541,
      "qq": 2542,
      "w𓊇": 2543,
      "zbꜣ": 2544,
      "šḏ": 2545,
      "ḳꜥḥ": 2546,
      "ẖt": 2547,
      "ẖms": 2548,
      "ꞽwt": 2549,
      "##ꜣm": 2550,
      "##bj": 2551,
      "##rm": 2552,
      "##≡w": 2553,
      "##kw": 2554,
      "##ḏn": 2555,
      "##ḏj": 2556,
      "##ḳw": 2557,
      "jmk": 2558,
      "tj≡f": 2559,
      "jnd": 2560,
      "jntj": 2561,
      "kꜣm": 2562,
      "ḥmy": 2563,
      "ḏd≡f": 2564,
      "twnj": 2565,
      "wnb": 2566,
      "ḥꜣg": 2567,
      "ḥꜣtj": 2568,
      "jmntw": 2569,
      "mnz": 2570,
      "ḫnḏ": 2571,
      "jbrj": 2572,
      "ḥns": 2573,
      "ḥnnj": 2574,
      "ḫtj": 2575,
      "tty": 2576,
      "sꜣṯ": 2577,
      "hꜣd": 2578,
      "mdn": 2579,
      "ptj": 2580,
      "sḥrjw": 2581,
      "jsr": 2582,
      "ḥꜥb": 2583,
      "ḫꜥr": 2584,
      "gstj": 2585,
      "rwy": 2586,
      "pḥrr": 2587,
      "qꜣḥ": 2588,
      "qꜣjs": 2589,
      "jṯṯ": 2590,
      "qdd": 2591,
      "gꜣš": 2592,
      "pḏi̯": 2593,
      "ḫpš≡f": 2594,
      "ddwn": 2595,
      "##nḏm": 2596,
      "wrry": 2597,
      "ksj": 2598,
      "ꜥntjw": 2599,
      "nqm": 2600,
      "mḏdw": 2601,
      "hbu̯": 2602,
      "dgi̯": 2603,
      "wꜣww": 2604,
      "ꜥẖn": 2605,
      "jꜣkb": 2606,
      "sswnu̯": 2607,
      "33": 2608,
      "gp": 2609,
      "r≡f": 2610,
      "wfꜣ": 2611,
      "zwꜣ": 2612,
      "štm": 2613,
      "ẖzi̯": 2614,
      "ꜥfd": 2615,
      "##šd": 2616,
      "##hy": 2617,
      "##kḥ": 2618,
      "ḥrs": 2619,
      "tjs": 2620,
      "tjḥ": 2621,
      "tjtj": 2622,
      "ḫrš": 2623,
      "nfrj": 2624,
      "kꜣn": 2625,
      "kꜣpw": 2626,
      "nst": 2627,
      "nsj": 2628,
      "ḥmj": 2629,
      "mꜣmꜣ": 2630,
      "ꜥꜣg": 2631,
      "swḫꜣ": 2632,
      "mꜣꜥj": 2633,
      "bꜣḳ": 2634,
      "wtn": 2635,
      "ḥnj": 2636,
      "sḫwn": 2637,
      "mstꜣ": 2638,
      "ꜥḥw": 2639,
      "ḏꜣf": 2640,
      "ḏꜣḏ": 2641,
      "sḏḥ": 2642,
      "ḏrjw": 2643,
      "sḥb": 2644,
      "sḥwi̯": 2645,
      "wpt": 2646,
      "jsp": 2647,
      "##bnj": 2648,
      "grt": 2649,
      "tmt": 2650,
      "šꜣjs": 2651,
      "##bꜣbꜣ": 2652,
      "qdw": 2653,
      "sjm": 2654,
      "ꞽnt": 2655,
      "stpt": 2656,
      "ꞽwr": 2657,
      "ꞽwf": 2658,
      "dpw": 2659,
      "twti̯": 2660,
      "bdd": 2661,
      "jnnk": 2662,
      "ꞽꜣr": 2663,
      "msḏi̯": 2664,
      "mꞽn": 2665,
      "ḳnjw": 2666,
      "nhmhm": 2667,
      "šmꜣj": 2668,
      "mhw": 2669,
      "nzp": 2670,
      "wgs": 2671,
      "wꜣḫi̯": 2672,
      "mnjnjw": 2673,
      "kḥkḥ": 2674,
      "btn": 2675,
      "bhn": 2676,
      "bgs": 2677,
      "jgꜣ": 2678,
      "kḏn": 2679,
      "pfꜣ": 2680,
      "szw": 2681,
      "ti": 2682,
      "whm": 2683,
      "znj": 2684,
      "ı͗": 2685,
      "štj": 2686,
      "ḥʾ": 2687,
      "ꞽpw": 2688,
      "##sꞽ": 2689,
      "##dy": 2690,
      "##rn": 2691,
      "##zk": 2692,
      "##št": 2693,
      "##gm": 2694,
      "##ḏd": 2695,
      "jmr": 2696,
      "snh": 2697,
      "snḫt": 2698,
      "nṯrj": 2699,
      "mꜣwi̯": 2700,
      "wnt": 2701,
      "zꜣi̯": 2702,
      "wꜣr": 2703,
      "smꜥ": 2704,
      "bꜣn": 2705,
      "jbr": 2706,
      "ḥntj": 2707,
      "mjmj": 2708,
      "pnṯw": 2709,
      "jꜣj": 2710,
      "sšt": 2711,
      "hꜣp": 2712,
      "pꜣyw": 2713,
      "nḥrw": 2714,
      "rḫj": 2715,
      "mtnw": 2716,
      "rnpw": 2717,
      "ḥꜥꜣ": 2718,
      "gr≡f": 2719,
      "ḥsy": 2720,
      "ꜥnp": 2721,
      "ꜥnty": 2722,
      "sṯn": 2723,
      "sṯzi̯": 2724,
      "sṯni̯": 2725,
      "jꜥꜥ": 2726,
      "wdḥw": 2727,
      "ḫsd": 2728,
      "jḫḫ": 2729,
      "mšwš": 2730,
      "nhs": 2731,
      "ẖtt": 2732,
      "gbgb": 2733,
      "ẖꜣb": 2734,
      "jꜣwj": 2735,
      "ḫwrr": 2736,
      "sẖn": 2737,
      "ḏḥwtt": 2738,
      "nšny": 2739,
      "ḥryw": 2740,
      "ḥbnbn": 2741,
      "kkwy": 2742,
      "ꜥwꜣy": 2743,
      "##tft": 2744,
      "bꞽn": 2745,
      "jhj": 2746,
      "nḥsj": 2747,
      "bbꞽ": 2748,
      "sꞽꜥ": 2749,
      "pyr": 2750,
      "ꞽḫm": 2751,
      "whi̯": 2752,
      "bꜣby": 2753,
      "sntrj": 2754,
      "jtwr": 2755,
      "ṯḥḥwy": 2756,
      "ḥʾm": 2757,
      "35": 2758,
      "39": 2759,
      "dbꜣ": 2760,
      "gy": 2761,
      "qḏ": 2762,
      "spy": 2763,
      "ti̯": 2764,
      "u̯": 2765,
      "whn": 2766,
      "zẖ": 2767,
      "šwty": 2768,
      "ḳḥ": 2769,
      "ḳw": 2770,
      "ꜣp": 2771,
      "ꜣg": 2772,
      "ꞽbḥ": 2773,
      "ꞽdb": 2774,
      "##mṯ": 2775,
      "##pḏ": 2776,
      "##fw": 2777,
      "##ḫf": 2778,
      "##kk": 2779,
      "jm≡j": 2780,
      "prw": 2781,
      "prꞽ": 2782,
      "tꜣḫb": 2783,
      "nfry": 2784,
      "ḥmm": 2785,
      "wꜥꜥ": 2786,
      "rnsꞽ": 2787,
      "mnfy": 2788,
      "pwj": 2789,
      "smꞽ": 2790,
      "bꜣꜣ": 2791,
      "ḥnbꜣbꜣ": 2792,
      "nny": 2793,
      "nnk": 2794,
      "sḫꜥi̯": 2795,
      "mstj": 2796,
      "pnd": 2797,
      "šnꞽ": 2798,
      "srm": 2799,
      "nḥd": 2800,
      "nḥp": 2801,
      "sbš": 2802,
      "mtꜣ": 2803,
      "wpš": 2804,
      "ḫfꜣ": 2805,
      "##wꜣḏ": 2806,
      "bnf": 2807,
      "bnꞽ": 2808,
      "ḫꜥy": 2809,
      "ꞽrꞽ": 2810,
      "wꜣḏwꜣḏ": 2811,
      "jpt": 2812,
      "jpf": 2813,
      "rmj": 2814,
      "qꜣqꜣ": 2815,
      "sꜥḏꜣ": 2816,
      "qdjw": 2817,
      "qrqr": 2818,
      "wnmi̯": 2819,
      "djfn": 2820,
      "djdj": 2821,
      "ꞽnb": 2822,
      "sdḫ": 2823,
      "jꜣbt": 2824,
      "sfꜣ": 2825,
      "gꜣbw": 2826,
      "gꜣḥs": 2827,
      "mḏr": 2828,
      "pḏpḏ": 2829,
      "nšni̯": 2830,
      "dny": 2831,
      "ꜥḫḫ": 2832,
      "mtrtw": 2833,
      "mzḥw": 2834,
      "nḫbḫb": 2835,
      "ḥṯṯ": 2836,
      "ḫdj": 2837,
      "tḫi̯": 2838,
      "ksm": 2839,
      "mjnb": 2840,
      "ẖsꜣ": 2841,
      "ḥwꜣꜣ": 2842,
      "sꞽn": 2843,
      "wꜥwꜥ": 2844,
      "dgs": 2845,
      "tkꜣw": 2846,
      "kšj": 2847,
      "ktkt": 2848,
      "ḥwrꜥ": 2849,
      "tši̯": 2850,
      "ḥfdi̯": 2851,
      "ḳwḳw": 2852,
      "##mṯk": 2853,
      "42": 2854,
      "bg": 2855,
      "htt": 2856,
      "jf": 2857,
      "khb": 2858,
      "nkꜣ": 2859,
      "nqr": 2860,
      "pq": 2861,
      "t≡": 2862,
      "zꜥm": 2863,
      "ḥḳr": 2864,
      "ḫšb": 2865,
      "ṯṯj": 2866,
      "ẖd": 2867,
      "##bẖ": 2868,
      "##yw": 2869,
      "##ḥy": 2870,
      "##wḥ": 2871,
      "##jn": 2872,
      "##jj": 2873,
      "##hr": 2874,
      "##kb": 2875,
      "##ꞽw": 2876,
      "nb≡s": 2877,
      "jmt": 2878,
      "jwsw": 2879,
      "prwı͗": 2880,
      "jnḫj": 2881,
      "mꜣꞽr": 2882,
      "ꜥꜣw": 2883,
      "ḏdm": 2884,
      "ꜥnḫj": 2885,
      "swj": 2886,
      "swbꜣ": 2887,
      "swgꜣ": 2888,
      "wrs": 2889,
      "ḥꜣꜥ": 2890,
      "jmntt": 2891,
      "mnf": 2892,
      "mnh": 2893,
      "ḫꜣwt": 2894,
      "smjw": 2895,
      "bꜣtꜣ": 2896,
      "wt≡sn": 2897,
      "jbsꜣ": 2898,
      "šmšm": 2899,
      "sꜣšr": 2900,
      "hꜣr": 2901,
      "tny": 2902,
      "šnm": 2903,
      "srḏ": 2904,
      "nḏꜣ": 2905,
      "mty": 2906,
      "ẖnẖ": 2907,
      "ḥḏr": 2908,
      "nḫꜣḫ": 2909,
      "ḥꜥḏꜣ": 2910,
      "ḥꜥtj": 2911,
      "psmṯk": 2912,
      "ḫꜥj": 2913,
      "gsw": 2914,
      "špn": 2915,
      "jptf": 2916,
      "qꜣd": 2917,
      "šꜣi̯": 2918,
      "ḫmḫ": 2919,
      "wdj": 2920,
      "psḏi̯": 2921,
      "jḫr": 2922,
      "šdšd": 2923,
      "jdj": 2924,
      "jzy": 2925,
      "ꜥrw": 2926,
      "drf": 2927,
      "ḫꜣsw": 2928,
      "jꜣbi̯": 2929,
      "ḫsfi̯": 2930,
      "nht": 2931,
      "ẖt": 2932,
      "qbḥw": 2933,
      "ṯꜣwy": 2934,
      "wšm": 2935,
      "wšš": 2936,
      "pꜥn": 2937,
      "wsḫt": 2938,
      "ḫwꞽ": 2939,
      "ḏꜥꜥm": 2940,
      "ssḫ": 2941,
      "ꞽti̯": 2942,
      "nšꜣ": 2943,
      "zšzš": 2944,
      "##trt": 2945,
      "ꜥwg": 2946,
      "šbw": 2947,
      "ꜣḥt": 2948,
      "šrꞽ": 2949,
      "rtnw": 2950,
      "ꞽst": 2951,
      "ꜣyt": 2952,
      "sḫtḫt": 2953,
      "wršt": 2954,
      "jhm": 2955,
      "mjnꜣ": 2956,
      "jntsn": 2957,
      "fntj": 2958,
      "dgꜣs": 2959,
      "jkw": 2960,
      "jnsj": 2961,
      "zḫi̯": 2962,
      "swrd": 2963,
      "hꜣnꜣ": 2964,
      "mḫw": 2965,
      "ꜥẖm": 2966,
      "shru̯": 2967,
      "sswnw": 2968,
      "ṯfw": 2969,
      "ḏmꜥ": 2970,
      "34": 2971,
      "bwi̯": 2972,
      "bꜥb": 2973,
      "ftft": 2974,
      "hdn": 2975,
      "htꞽ": 2976,
      "kbnj": 2977,
      "mṯ": 2978,
      "ndb": 2979,
      "qt": 2980,
      "qfd": 2981,
      "ršr": 2982,
      "wz": 2983,
      "ywt": 2984,
      "šꞽ": 2985,
      "štw": 2986,
      "ḥfj": 2987,
      "ḳḏ": 2988,
      "ꞽṯ": 2989,
      "ꞽdn": 2990,
      "##sf": 2991,
      "##sl": 2992,
      "##tjw": 2993,
      "##ns": 2994,
      "##ḏrj": 2995,
      "nbḥ": 2996,
      "jww": 2997,
      "jwj": 2998,
      "tjn": 2999,
      "tjwtj": 3000,
      "sns": 3001,
      "snš": 3002,
      "snhꜣ": 3003,
      "pꜣd": 3004,
      "prš": 3005,
      "nfꜥ": 3006,
      "nfj": 3007,
      "kꜣt": 3008,
      "rʾw": 3009,
      "ḥmtj": 3010,
      "ḏdꞽ": 3011,
      "twrj": 3012,
      "twnn": 3013,
      "sww": 3014,
      "jt≡s": 3015,
      "wrt": 3016,
      "wrw": 3017,
      "wꜥꜣ": 3018,
      "wst": 3019,
      "rn≡s": 3020,
      "jmntj": 3021,
      "mns": 3022,
      "ḫꜣḏ": 3023,
      "mꜣꜥt": 3024,
      "du≡f": 3025,
      "wty": 3026,
      "jbb": 3027,
      "ḥnnw": 3028,
      "ḥnzk": 3029,
      "stnm": 3030,
      "wḏn": 3031,
      "wḏfꜣ": 3032,
      "jꜣṯ": 3033,
      "jꜣjr": 3034,
      "jꜣzn": 3035,
      "sꜣm": 3036,
      "sꜣtꜣ": 3037,
      "hꜣm": 3038,
      "sḏf": 3039,
      "tnbẖ": 3040,
      "mdnj": 3041,
      "ṯndu": 3042,
      "ṯntꞽ": 3043,
      "sby": 3044,
      "bnd": 3045,
      "bnš": 3046,
      "bnḏ": 3047,
      "ḏswi̯": 3048,
      "gsgs": 3049,
      "rmm": 3050,
      "ꜥnꜥ": 3051,
      "wḥwḥ": 3052,
      "sṯs": 3053,
      "ḫmm": 3054,
      "jḫḫj": 3055,
      "nswy": 3056,
      "nꜣyw": 3057,
      "jzi̯": 3058,
      "skn": 3059,
      "mꜥnḫ": 3060,
      "ꜥḏr": 3061,
      "mḏꜣb": 3062,
      "wjꜣwj": 3063,
      "sẖm": 3064,
      "sspd": 3065,
      "jšf": 3066,
      "ꞽtn": 3067,
      "bjꜣk": 3068,
      "pzš": 3069,
      "pzḫ": 3070,
      "sḫpt": 3071,
      "dng": 3072,
      "ḫbd": 3073,
      "ꞽsk": 3074,
      "sjꜣṯ": 3075,
      "dby": 3076,
      "npḥ": 3077,
      "mjni̯": 3078,
      "sbjꜣ": 3079,
      "mẖt": 3080,
      "ḫsbb": 3081,
      "ꞽzꞽ": 3082,
      "hmṯ": 3083,
      "110": 3084,
      "jgp": 3085,
      "nꞽꜣ": 3086,
      "ꞽdr": 3087,
      "zmjn": 3088,
      "jqrj": 3089,
      "ḥwtf": 3090,
      "tbtb": 3091,
      "zft": 3092,
      "szn": 3093,
      "njꜣjꜣ": 3094,
      "bḫḫ": 3095,
      "ꜣhd": 3096,
      "jꜣkm": 3097,
      "ꜥstrt": 3098,
      "ẖrtyw": 3099,
      "jzzy": 3100,
      "zššn": 3101,
      "szwn": 3102,
      "ẖnẖn": 3103,
      "nḫꜣḫꜣ": 3104,
      "bꜥbꜥ": 3105,
      "ršrš": 3106,
      "wjꜣwjꜣ": 3107,
      "000": 3108,
      "dpy": 3109,
      "dḫn": 3110,
      "fs": 3111,
      "fq": 3112,
      "gg": 3113,
      "hʾ": 3114,
      "hi̯": 3115,
      "iw": 3116,
      "kh": 3117,
      "ktw": 3118,
      "mb": 3119,
      "pẖ": 3120,
      "qbw": 3121,
      "rṯ": 3122,
      "t≡sn": 3123,
      "y≡f": 3124,
      "ḫz": 3125,
      "ṯtt": 3126,
      "ṯfj": 3127,
      "ẖtb": 3128,
      "ꜣf": 3129,
      "ꜣqꜣ": 3130,
      "ꜣjs": 3131,
      "ꞽty": 3132,
      "##st": 3133,
      "##sḥ": 3134,
      "##pꜣ": 3135,
      "##ry": 3136,
      "##rʾ": 3137,
      "##rṯ": 3138,
      "##ẖb": 3139,
      "##ḫd": 3140,
      "##ꞽn": 3141,
      "nb≡j": 3142,
      "jr≡f": 3143,
      "jwjw": 3144,
      "jwpw": 3145,
      "jwdn": 3146,
      "tjms": 3147,
      "pꜣz": 3148,
      "ḫrj": 3149,
      "jnjw": 3150,
      "jnty": 3151,
      "mr≡f": 3152,
      "mꜣnw": 3153,
      "ḏdb": 3154,
      "wng": 3155,
      "swh": 3156,
      "zꜣr": 3157,
      "wrḥw": 3158,
      "ḥꜣpw": 3159,
      "ẖrt": 3160,
      "bꜣ≡s": 3161,
      "mjj": 3162,
      "mst": 3163,
      "jꜣtt": 3164,
      "mḥwn": 3165,
      "ḏꜣw": 3166,
      "srjw": 3167,
      "ḥḏḏ": 3168,
      "nḫj": 3169,
      "ḥꜥn": 3170,
      "ḥsr": 3171,
      "ṯwfj": 3172,
      "gmgm": 3173,
      "kwꞽ": 3174,
      "ntš": 3175,
      "šwb": 3176,
      "ꜣbdw": 3177,
      "šꜣṯ": 3178,
      "ꜥnꜥr": 3179,
      "sꜥn": 3180,
      "špst": 3181,
      "sṯy": 3182,
      "sṯnj": 3183,
      "ḫmy": 3184,
      "wdb": 3185,
      "mšn": 3186,
      "sjd": 3187,
      "šꜥi̯": 3188,
      "sky": 3189,
      "skj": 3190,
      "ḥbb": 3191,
      "sdꜣw": 3192,
      "sbꜣq": 3193,
      "nhsi̯": 3194,
      "nhrn": 3195,
      "gbw": 3196,
      "ḫwi̯≡s": 3197,
      "ꞽws": 3198,
      "ṯꜣwı͗": 3199,
      "mrḥw": 3200,
      "wḥmw": 3201,
      "ẖnmw": 3202,
      "dꜣdꜣ": 3203,
      "ḫwfw": 3204,
      "ssf": 3205,
      "ssḏ": 3206,
      "ꞽtḥ": 3207,
      "ddj": 3208,
      "nꜥj": 3209,
      "šbi̯": 3210,
      "dbḥn": 3211,
      "ṯss": 3212,
      "dni̯": 3213,
      "hni̯": 3214,
      "snfrw": 3215,
      "ḏjḏj": 3216,
      "mzt": 3217,
      "bjnr": 3218,
      "ḥmꜣm": 3219,
      "fdi̯": 3220,
      "sjꜣt": 3221,
      "ꜥdw": 3222,
      "qmd": 3223,
      "ḥzi̯≡f": 3224,
      "dbdb": 3225,
      "jhh": 3226,
      "ksw": 3227,
      "msdmt": 3228,
      "sndw": 3229,
      "ḳny": 3230,
      "smḥi̯": 3231,
      "mꜥḥꜣ": 3232,
      "sẖꜣww": 3233,
      "ꜥꜥn": 3234,
      "ḏrjḏrj": 3235,
      "tfi̯": 3236,
      "mfḫ": 3237,
      "ngg": 3238,
      "i͗nj": 3239,
      "zmꞽn": 3240,
      "ḳrs": 3241,
      "tbj": 3242,
      "mnqb": 3243,
      "sḥꜣp": 3244,
      "ꜥstj": 3245,
      "nwꜣwꜣ": 3246,
      "jšrw": 3247,
      "ḥntꜣsw": 3248,
      "wḏfi̯": 3249,
      "mnzꜣ": 3250,
      "ꜥḥwwtj": 3251,
      "sdꜣwg": 3252,
      "38": 3253,
      "46": 3254,
      "55": 3255,
      "dwi̯": 3256,
      "fꜥ": 3257,
      "gḥ": 3258,
      "kṯ": 3259,
      "mhn": 3260,
      "rh": 3261,
      "rqꜣ": 3262,
      "su": 3263,
      "t𓊇": 3264,
      "tbw": 3265,
      "znw": 3266,
      "zḫꜣ": 3267,
      "štp": 3268,
      "ṯṯ": 3269,
      "ꜣn": 3270,
      "ꞽh": 3271,
      "ꞽꜣḫ": 3272,
      "##bb": 3273,
      "##ḥm": 3274,
      "##nt": 3275,
      "##hw": 3276,
      "##km": 3277,
      "##ḏḥ": 3278,
      "ḥrt": 3279,
      "jmpy": 3280,
      "tjr": 3281,
      "snꞽ": 3282,
      "sn≡j": 3283,
      "ḫrd": 3284,
      "prt": 3285,
      "jnmm": 3286,
      "mrkb": 3287,
      "mꜣd": 3288,
      "twṯ": 3289,
      "twri̯": 3290,
      "wnp": 3291,
      "wsš": 3292,
      "wsi̯": 3293,
      "wsṯn": 3294,
      "ḫꜣbs": 3295,
      "wꜣy": 3296,
      "smwn": 3297,
      "wtjw": 3298,
      "jbn": 3299,
      "jbṯ": 3300,
      "sḫꜥ": 3301,
      "mjnj": 3302,
      "stf": 3303,
      "wḏy": 3304,
      "ḫtf": 3305,
      "pns": 3306,
      "šmsi̯": 3307,
      "sšwꜣ": 3308,
      "sškr": 3309,
      "sꜣy": 3310,
      "sꜣrj": 3311,
      "sꜣsꜣ": 3312,
      "mḥꜣ": 3313,
      "mḥt": 3314,
      "ḏꜣt": 3315,
      "sḏw": 3316,
      "nḏd": 3317,
      "nḏḥ": 3318,
      "nḏw": 3319,
      "mwy": 3320,
      "mwmw": 3321,
      "ptn": 3322,
      "ṯntt": 3323,
      "sḥrj": 3324,
      "ꜣbj": 3325,
      "sbṯ": 3326,
      "ẖnnw": 3327,
      "ḥḏt": 3328,
      "spt": 3329,
      "ꞽmꜣ": 3330,
      "ꞽmꞽ": 3331,
      "ꞽrṯ": 3332,
      "gsfn": 3333,
      "wꜣḏt": 3334,
      "rww": 3335,
      "jpd": 3336,
      "jpl": 3337,
      "rmnw": 3338,
      "šꜣr": 3339,
      "wdf": 3340,
      "ḥzp": 3341,
      "ḫsꜣ": 3342,
      "jḫj": 3343,
      "sjpj": 3344,
      "šꜥt": 3345,
      "šꜥf": 3346,
      "šꜥq": 3347,
      "jdy": 3348,
      "jzr": 3349,
      "jzkn": 3350,
      "ꞽnq": 3351,
      "##tyw": 3352,
      "mrrt": 3353,
      "sdw": 3354,
      "nḏmnḏm": 3355,
      "gbj": 3356,
      "ꜣwj": 3357,
      "zḥp": 3358,
      "ḫwsi̯": 3359,
      "sẖi̯": 3360,
      "znš": 3361,
      "šnꜥw": 3362,
      "ḫnmm": 3363,
      "sḫpj": 3364,
      "nšw": 3365,
      "zšp": 3366,
      "ḥnkt": 3367,
      "zbṯ": 3368,
      "hnhn": 3369,
      "ꞽꜣq": 3370,
      "ꞽꜣzn": 3371,
      "ḫbz": 3372,
      "mzꜣ": 3373,
      "tpl≡f": 3374,
      "sꜣḥw": 3375,
      "ḏfꜣw": 3376,
      "jꜣdr": 3377,
      "fꜣt": 3378,
      "bss": 3379,
      "wbdj": 3380,
      "jmꜣm": 3381,
      "ꜥrfwı͗": 3382,
      "sḫntj": 3383,
      "sjni̯": 3384,
      "ksks": 3385,
      "zwnṯ": 3386,
      "ḏrww": 3387,
      "3000": 3388,
      "ḫnrt": 3389,
      "šꜣsw": 3390,
      "tw≡t": 3391,
      "kršt": 3392,
      "ḫmny": 3393,
      "hpꜣ": 3394,
      "snmḥ": 3395,
      "ḫwj≡f": 3396,
      "sdꜣdꜣ": 3397,
      "zmz": 3398,
      "##bst": 3399,
      "mhr": 3400,
      "nzn": 3401,
      "wgi̯": 3402,
      "šnṯṯ": 3403,
      "tmꜣm": 3404,
      "whs": 3405,
      "whnn": 3406,
      "sḫdḫd": 3407,
      "hbnj": 3408,
      "mꜥwḥ": 3409,
      "ndꞽ": 3410,
      "sfnd": 3411,
      "jbꜣn": 3412,
      "snḥm": 3413,
      "mḫr": 3414,
      "mḫsf": 3415,
      "sꜥrq": 3416,
      "ṯjṯj": 3417,
      "bꜣbj": 3418,
      "ꜥḳꜣy": 3419,
      "nfꜣj": 3420,
      "mntwf": 3421,
      "sẖnk": 3422,
      "subst": 3423,
      "77": 3424,
      "900": 3425,
      "bk": 3426,
      "bsn": 3427,
      "bṯn": 3428,
      "fy": 3429,
      "fk": 3430,
      "fkꜣ": 3431,
      "gš": 3432,
      "hq": 3433,
      "hwt": 3434,
      "kꞽ": 3435,
      "krj": 3436,
      "knj": 3437,
      "mfꜣ": 3438,
      "mgꜣ": 3439,
      "sḳ": 3440,
      "tfꜣ": 3441,
      "tbs": 3442,
      "tḥwj": 3443,
      "yṱ": 3444,
      "yꜥr": 3445,
      "yꜥi̯": 3446,
      "ṯwꜣ": 3447,
      "ṯkw": 3448,
      "ẖb": 3449,
      "ẖꜥꜥ": 3450,
      "##tš": 3451,
      "##ꜥq": 3452,
      "##mt": 3453,
      "##yt": 3454,
      "##nb": 3455,
      "##ḫr": 3456,
      "jrnn": 3457,
      "snwt": 3458,
      "snṯi̯": 3459,
      "prḫ": 3460,
      "jnṯ": 3461,
      "kꜣꜣ": 3462,
      "rʾ≡sn": 3463,
      "mꜣm": 3464,
      "mꜣy": 3465,
      "ꜥꜣḏ": 3466,
      "ḏdk": 3467,
      "ḏdṯ": 3468,
      "jtt": 3469,
      "zꜣš": 3470,
      "wrl": 3471,
      "ḥꜣḳ": 3472,
      "ḥtpt": 3473,
      "mni̯": 3474,
      "ḫnnj": 3475,
      "ẖrm": 3476,
      "smtj": 3477,
      "bꜣi̯": 3478,
      "jby": 3479,
      "jbh": 3480,
      "ḥnṯi̯": 3481,
      "ꜣḫj": 3482,
      "mjty": 3483,
      "stni̯": 3484,
      "ḫtsl": 3485,
      "jꜣš": 3486,
      "jꜣi̯": 3487,
      "ḫntw": 3488,
      "sꜣd": 3489,
      "ḏꜣj": 3490,
      "ḏrṯ": 3491,
      "nws": 3492,
      "nḏf": 3493,
      "ṯnm": 3494,
      "nḥy": 3495,
      "sḥsḥ": 3496,
      "ṯꜣu̯": 3497,
      "ẖnk": 3498,
      "wpꞽ": 3499,
      "wpwt": 3500,
      "sps": 3501,
      "spḫꜣ": 3502,
      "bny": 3503,
      "nmtj": 3504,
      "ḫfty": 3505,
      "pḥḏ": 3506,
      "špnn": 3507,
      "wsrt": 3508,
      "sꜥḳ": 3509,
      "ḏḥꜣ": 3510,
      "ḏḥꜥ": 3511,
      "jṯt": 3512,
      "jṯw": 3513,
      "jṯn": 3514,
      "jwnn": 3515,
      "ḫmw": 3516,
      "qdi̯": 3517,
      "sšmm": 3518,
      "sšmw": 3519,
      "ḫsḏ": 3520,
      "šmꜥi̯": 3521,
      "mšṯ": 3522,
      "sjwi̯": 3523,
      "qnꞽ": 3524,
      "šdy": 3525,
      "šddj": 3526,
      "tꜣyw": 3527,
      "ꞽnpw": 3528,
      "tꞽt": 3529,
      "ꜣpdw": 3530,
      "skt": 3531,
      "mꜥm": 3532,
      "mꜥnn": 3533,
      "ḫpḫ": 3534,
      "mrry": 3535,
      "sdḥ": 3536,
      "smꜣy": 3537,
      "smꜣw": 3538,
      "snbb": 3539,
      "snbj": 3540,
      "nhw": 3541,
      "sfr": 3542,
      "sfg": 3543,
      "ꞽwd": 3544,
      "gꜣḥ": 3545,
      "mḏw": 3546,
      "dꜣp": 3547,
      "ḫwḫ": 3548,
      "ḫwzi̯": 3549,
      "ntyw": 3550,
      "sẖp": 3551,
      "twtn": 3552,
      "stẖj": 3553,
      "dsj": 3554,
      "spdd": 3555,
      "jwꜥy": 3556,
      "nꜥš": 3557,
      "ḏḥwtꞽ": 3558,
      "njwjw": 3559,
      "mntjw": 3560,
      "ṯsy": 3561,
      "ḳdw": 3562,
      "ḫbb": 3563,
      "ḏfꜣ≡j": 3564,
      "ḥbnnw": 3565,
      "ꞽsw": 3566,
      "fdw": 3567,
      "bꜥḥj": 3568,
      "fꜣw": 3569,
      "ḥbnnt": 3570,
      "bsy": 3571,
      "jrtjw": 3572,
      "sꜣwj": 3573,
      "bꞽꜣi̯": 3574,
      "ḏnr": 3575,
      "1200": 3576,
      "20000": 3577,
      "sjrʾ": 3578,
      "btꜣw": 3579,
      "mẖnty": 3580,
      "sꞽp": 3581,
      "sšꜣꜣ": 3582,
      "jdꜣt": 3583,
      "ꜥꜥnj": 3584,
      "bꜣgs": 3585,
      "ꞽpꞽ": 3586,
      "mnḏm": 3587,
      "ṯtꞽ": 3588,
      "hbhb": 3589,
      "hdm": 3590,
      "ḫjy": 3591,
      "ztꞽ": 3592,
      "tštš": 3593,
      "pḫd": 3594,
      "ndy": 3595,
      "sḫsf": 3596,
      "qrjs": 3597,
      "ḫntšj": 3598,
      "qfdn": 3599,
      "du≡fj": 3600,
      "sdwḫ": 3601,
      "hpꜣṯ": 3602,
      "nznzn": 3603,
      "mfꜣk": 3604,
      "31": 3605,
      "bẖ": 3606,
      "dbw": 3607,
      "fsi̯": 3608,
      "fgꜣ": 3609,
      "ht": 3610,
      "imn": 3611,
      "kpw": 3612,
      "kḥꜣ": 3613,
      "mg": 3614,
      "mkꜣ": 3615,
      "n≡": 3616,
      "ni": 3617,
      "pgs": 3618,
      "rjw": 3619,
      "r≡w": 3620,
      "sḳꜣ": 3621,
      "tṯ": 3622,
      "yh": 3623,
      "ytp": 3624,
      "zpr": 3625,
      "šḳ": 3626,
      "ḥwty": 3627,
      "ṯṯw": 3628,
      "≡k": 3629,
      "ꜣty": 3630,
      "ꜥ≡f": 3631,
      "𓍹w": 3632,
      "##by": 3633,
      "##bi̯": 3634,
      "##ꜥš": 3635,
      "##mr": 3636,
      "##nꜥ": 3637,
      "##np": 3638,
      "##nr": 3639,
      "##qb": 3640,
      "##kj": 3641,
      "##ḏh": 3642,
      "nbꞽ": 3643,
      "nb≡sn": 3644,
      "jrꜥ": 3645,
      "jrtj": 3646,
      "jwp": 3647,
      "jwms": 3648,
      "tjwt": 3649,
      "pr≡f": 3650,
      "jnꜥ": 3651,
      "nft": 3652,
      "nfr𓍺": 3653,
      "nfr≡f": 3654,
      "kꜣh": 3655,
      "rʾrʾ": 3656,
      "mrꞽ": 3657,
      "mrwt": 3658,
      "ꜥꜣt": 3659,
      "ꜥꜣj": 3660,
      "wntj": 3661,
      "jri̯≡f": 3662,
      "jtꜣ": 3663,
      "wsy": 3664,
      "jmnw": 3665,
      "mnfꜣ": 3666,
      "wꜣt": 3667,
      "wꜣsi̯": 3668,
      "ẖrw": 3669,
      "ẖri": 3670,
      "ẖrı͗": 3671,
      "smḏd": 3672,
      "bꜣš": 3673,
      "bꜣkꜣ": 3674,
      "bꜣwj": 3675,
      "bꜣwı͗": 3676,
      "wtꞽ": 3677,
      "wti̯": 3678,
      "ḥnm": 3679,
      "ḥng": 3680,
      "ḥnʾ": 3681,
      "ḥnṯ": 3682,
      "ḥnsk": 3683,
      "ꜣḫi̯": 3684,
      "sḫꜣḫ": 3685,
      "sḫnj": 3686,
      "mjꜣ": 3687,
      "str": 3688,
      "msḫꜣ": 3689,
      "jꜣt": 3690,
      "jꜣg": 3691,
      "sšs": 3692,
      "sꜣbw": 3693,
      "mḥꞽ": 3694,
      "mḥ≡f": 3695,
      "ḏꜣd": 3696,
      "hꜣmm": 3697,
      "sḏwi̯": 3698,
      "sḏrjw": 3699,
      "rḏy": 3700,
      "srmw": 3701,
      "mdd": 3702,
      "mdj": 3703,
      "sḥt": 3704,
      "sḥꜣi̯": 3705,
      "ꜣbꜣ": 3706,
      "ytj": 3707,
      "ẖny": 3708,
      "rdm": 3709,
      "jshꜣ": 3710,
      "jsbw": 3711,
      "nḫy": 3712,
      "nḫṱ": 3713,
      "spp": 3714,
      "wḏꜣw": 3715,
      "ḫfḫf": 3716,
      "pss": 3717,
      "ḏw≡": 3718,
      "ḏwḏw": 3719,
      "ḫꜥ≡f": 3720,
      "ṯwn": 3721,
      "nmrṯ": 3722,
      "ꞽmr": 3723,
      "nts": 3724,
      "ntꜣ": 3725,
      "ntb": 3726,
      "ntꜣi̯": 3727,
      "mtwn": 3728,
      "ꜥšj": 3729,
      "ꜥšgꜣ": 3730,
      "pḥw": 3731,
      "pḥwj": 3732,
      "rmy": 3733,
      "qꜣm": 3734,
      "qꜣjw": 3735,
      "šꜣd": 3736,
      "ḫtmt": 3737,
      "jwny": 3738,
      "sṯꞽ": 3739,
      "ḥzꞽ": 3740,
      "dmg": 3741,
      "qdb": 3742,
      "qdm": 3743,
      "jzp": 3744,
      "ꞽnm": 3745,
      "mꜥn": 3746,
      "ꜥrrw": 3747,
      "sḫrw": 3748,
      "ḥby": 3749,
      "ḥbi̯": 3750,
      "nʾn": 3751,
      "kms": 3752,
      "smꜣr": 3753,
      "šmsj": 3754,
      "sfd": 3755,
      "sfy": 3756,
      "ꜥbꜥb": 3757,
      "mḏꜣt": 3758,
      "gꜣj": 3759,
      "wšꜣw": 3760,
      "swꜣw": 3761,
      "dꜣr": 3762,
      "ḫwns": 3763,
      "pḏw": 3764,
      "nḥmm": 3765,
      "sẖt": 3766,
      "sẖnn": 3767,
      "ssj": 3768,
      "mnjꜣ": 3769,
      "sqn": 3770,
      "sqbḥ": 3771,
      "sqnn": 3772,
      "sṯꜣm": 3773,
      "wꞽn": 3774,
      "ẖnmt": 3775,
      "wꜣgi̯": 3776,
      "šft": 3777,
      "nšd": 3778,
      "nšf": 3779,
      "ḥnkz": 3780,
      "zbb": 3781,
      "hnnj": 3782,
      "jnbw": 3783,
      "ꜥḫy": 3784,
      "bnrt": 3785,
      "wḫꜣwy": 3786,
      "snfḫf": 3787,
      "twꜣwt": 3788,
      "ḫbḏ": 3789,
      "ꞽmny": 3790,
      "ꜥgt": 3791,
      "sjꜣꜣ": 3792,
      "ḥṯꜣw": 3793,
      "sfḫw": 3794,
      "nmst": 3795,
      "pꜣwr": 3796,
      "rrw": 3797,
      "tḫy": 3798,
      "pšs": 3799,
      "kss": 3800,
      "ḏnꞽ": 3801,
      "ḫḫwj": 3802,
      "ḥzzy": 3803,
      "stḫy": 3804,
      "ḏrḏrj": 3805,
      "šnḏt": 3806,
      "ḥfꜣw": 3807,
      "hhj": 3808,
      "smḥr": 3809,
      "snwḫt": 3810,
      "snny": 3811,
      "thꜣb": 3812,
      "npꜣpꜣ": 3813,
      "bꜥn": 3814,
      "krp": 3815,
      "fḫḫ": 3816,
      "ꜣqs": 3817,
      "sꜣb≡j": 3818,
      "sbjwk": 3819,
      "ṯmzj": 3820,
      "rḥḥ": 3821,
      "tfy": 3822,
      "shrr": 3823,
      "ꜥft": 3824,
      "mꜣtꞽ": 3825,
      "šmꜣm": 3826,
      "dwḏw": 3827,
      "mhi̯": 3828,
      "mhwj": 3829,
      "ḳꜣḳꜣ": 3830,
      "bzꜣ": 3831,
      "rqy": 3832,
      "ḏwjwı͗": 3833,
      "ꞽšd": 3834,
      "mzwr": 3835,
      "zrm": 3836,
      "jsds": 3837,
      "sꞽꜣt": 3838,
      "tḥwꜣ": 3839,
      "ḥdd": 3840,
      "nhdhd": 3841,
      "tjmḥ": 3842,
      "kpny": 3843,
      "mhꜣw": 3844,
      "snḫḫ": 3845,
      "ḏfḏf": 3846,
      "ı͗t": 3847,
      "nḥrwı͗": 3848,
      "nḏꜣḏꜣ": 3849,
      "sꜥnd": 3850,
      "tbsṯꜣ": 3851,
      "rʾrʾmw": 3852,
      "wšꜣwšꜣ": 3853,
      "snfḫfḫ": 3854,
      "ḥṯꜣwı͗": 3855,
      "45": 3856,
      "87": 3857,
      "bm": 3858,
      "bh": 3859,
      "bl": 3860,
      "bbw": 3861,
      "dh": 3862,
      "dnḫ": 3863,
      "gf": 3864,
      "gi̯": 3865,
      "hs": 3866,
      "hpj": 3867,
      "j≡f": 3868,
      "jfj": 3869,
      "kꜥ": 3870,
      "kz": 3871,
      "kmꜣ": 3872,
      "mi": 3873,
      "mḳr": 3874,
      "npj": 3875,
      "ppw": 3876,
      "qf": 3877,
      "rḥw": 3878,
      "rhd": 3879,
      "tbꜣ": 3880,
      "tšꜣ": 3881,
      "wa": 3882,
      "w≡k": 3883,
      "yi̯": 3884,
      "škr": 3885,
      "ḏnw": 3886,
      "ḳrj": 3887,
      "ḳmꜣ": 3888,
      "ṯk": 3889,
      "ṯjs": 3890,
      "ṯkr": 3891,
      "ẖz": 3892,
      "ẖty": 3893,
      "ẖꜥm": 3894,
      "ꜣk": 3895,
      "ꜣḏ": 3896,
      "ꜥkk": 3897,
      "ꞽk": 3898,
      "ꞽbꜣ": 3899,
      "ꞽꜥḥ": 3900,
      "ꞽḥw": 3901,
      "ꞽꜥr": 3902,
      "##sy": 3903,
      "##dš": 3904,
      "##ꜣꜣ": 3905,
      "##tk": 3906,
      "##bḫ": 3907,
      "##pꜥ": 3908,
      "##jḥ": 3909,
      "##qd": 3910,
      "##qt": 3911,
      "##gr": 3912,
      "##ḏr": 3913,
      "##30": 3914,
      "nbb": 3915,
      "jwtj": 3916,
      "snhd": 3917,
      "pꜣs": 3918,
      "pꜣꜥ": 3919,
      "pꜣṱ": 3920,
      "ḫrḫr": 3921,
      "jnz": 3922,
      "tꜣtꜣ": 3923,
      "nfy": 3924,
      "kꜣwty": 3925,
      "nss": 3926,
      "ḥmu̯": 3927,
      "mꜣf": 3928,
      "mꜣṱ": 3929,
      "ꜥꜣꜣ": 3930,
      "swy": 3931,
      "swḫ": 3932,
      "swsn": 3933,
      "swjꜣ": 3934,
      "wry": 3935,
      "ḥꜣj": 3936,
      "ḥtpwı͗": 3937,
      "ḏi̯≡j": 3938,
      "ḫꜣz": 3939,
      "ḫꜣbw": 3940,
      "ḫꜣtb": 3941,
      "ẖrꞽ": 3942,
      "smsi̯": 3943,
      "bꜣd": 3944,
      "wtꜣ": 3945,
      "jb≡": 3946,
      "jb≡f": 3947,
      "jbtj": 3948,
      "ḥni̯": 3949,
      "ḥnti̯": 3950,
      "nnš": 3951,
      "sḫy": 3952,
      "sḫḫ": 3953,
      "ḫrwyw": 3954,
      "ḫty": 3955,
      "pnz": 3956,
      "jꜣs": 3957,
      "jꜣꜥš": 3958,
      "ttw": 3959,
      "ḫntt": 3960,
      "sšš": 3961,
      "sꜣj": 3962,
      "sꜣjr": 3963,
      "ḏꜣb": 3964,
      "hꜣrw": 3965,
      "nwꞽ": 3966,
      "nw≡f": 3967,
      "ptꞽ": 3968,
      "nḥn": 3969,
      "nḥḏ": 3970,
      "sḥqꜣ": 3971,
      "hry": 3972,
      "wps": 3973,
      "jsḫ": 3974,
      "jstn": 3975,
      "nḫi̯": 3976,
      "spi": 3977,
      "bwj": 3978,
      "ḫfj": 3979,
      "ḫfnn": 3980,
      "ḥsk": 3981,
      "mdwy": 3982,
      "nmꞽ": 3983,
      "kwms": 3984,
      "ntnt": 3985,
      "sḏmj": 3986,
      "pḥr": 3987,
      "pḥwy": 3988,
      "špty": 3989,
      "nḫtw": 3990,
      "qꜣꜥ": 3991,
      "qꜣḥꜣ": 3992,
      "šꜣꜣ": 3993,
      "šꜣf": 3994,
      "šꜣjw": 3995,
      "špsw": 3996,
      "ḫmj": 3997,
      "jꜥj": 3998,
      "##jsj": 3999,
      "mšꜣ": 4000,
      "sjꜥr": 4001,
      "ḥtw": 4002,
      "šdnw": 4003,
      "ꞽnꜥ": 4004,
      "ꞽnḥ": 4005,
      "mꜥkꜣ": 4006,
      "hꜣbq": 4007,
      "hꜣbwj": 4008,
      "smꜣwj": 4009,
      "wbnw": 4010,
      "ḫꜥi̯≡j": 4011,
      "nhy": 4012,
      "ꜥbb": 4013,
      "gꜣnn": 4014,
      "ẖꜣp": 4015,
      "snṯri̯": 4016,
      "ḏbb": 4017,
      "mḏḳ": 4018,
      "mḏri̯": 4019,
      "wšwš": 4020,
      "pꜥw": 4021,
      "pfsi̯": 4022,
      "qst": 4023,
      "dꜣg": 4024,
      "mkw": 4025,
      "štꜣy": 4026,
      "štꜣw": 4027,
      "ꞽbb": 4028,
      "ꞽbi̯": 4029,
      "sẖb": 4030,
      "sꜥḥw": 4031,
      "ssnḏm": 4032,
      "jjj": 4033,
      "znḥm": 4034,
      "try": 4035,
      "bjꜣy": 4036,
      "wꜣgj": 4037,
      "šfw": 4038,
      "šfu̯": 4039,
      "nšz": 4040,
      "mntn": 4041,
      "ꜥmm": 4042,
      "ꜥwj": 4043,
      "ṯrm": 4044,
      "ṯrw": 4045,
      "ṯrf": 4046,
      "ṯsw": 4047,
      "sḫꜣy": 4048,
      "hnꞽ": 4049,
      "ꞽꜣrr": 4050,
      "thn": 4051,
      "šrdn": 4052,
      "bḥbḥ": 4053,
      "ꜥḫw": 4054,
      "snfj": 4055,
      "nrr": 4056,
      "mzi̯": 4057,
      "jpwy": 4058,
      "ꜣšrt": 4059,
      "nkk": 4060,
      "tḫj": 4061,
      "jmꜣw": 4062,
      "ḏnb": 4063,
      "sḏꜣy": 4064,
      "##fdf": 4065,
      "bšd": 4066,
      "bšš": 4067,
      "mẖrj": 4068,
      "mẖnm": 4069,
      "ḫḫj": 4070,
      "bꜣst": 4071,
      "ꜣṯi̯": 4072,
      "ṯḥnn": 4073,
      "ḫsbt": 4074,
      "nhꜣjs": 4075,
      "thꜣm": 4076,
      "ꞽzn": 4077,
      "kry": 4078,
      "krbr": 4079,
      "mjzt": 4080,
      "ꜥntꞽw": 4081,
      "ꞽḥꜣ": 4082,
      "ꞽḥy": 4083,
      "sẖꜣk": 4084,
      "kfꜣw": 4085,
      "ꜥꜥj": 4086,
      "ꜥꜥf": 4087,
      "jksj": 4088,
      "ḥꜣww": 4089,
      "ḥnnꞽ": 4090,
      "wḥꜣm": 4091,
      "hbj": 4092,
      "hbi̯": 4093,
      "ꜣꜥꜥnj": 4094,
      "jmsṯ": 4095,
      "gꜣbi̯": 4096,
      "gḥsꜣ": 4097,
      "spḥt": 4098,
      "150": 4099,
      "i͗j": 4100,
      "wbdy": 4101,
      "sgrḥ": 4102,
      "pyꜣ": 4103,
      "dwnj": 4104,
      "jdmj": 4105,
      "5000": 4106,
      "swst": 4107,
      "ḳꜣb": 4108,
      "ḳꜣj": 4109,
      "ḫnws": 4110,
      "pgꜣs": 4111,
      "pgꜣjs": 4112,
      "whh": 4113,
      "2500": 4114,
      "sḥwrj": 4115,
      "bzn": 4116,
      "ndfdf": 4117,
      "sdmj": 4118,
      "rqi̯": 4119,
      "jfdj": 4120,
      "mꜥbꜣy": 4121,
      "nsyt": 4122,
      "wgꜣg": 4123,
      "ꜥpi̯": 4124,
      "zzḥꜣ": 4125,
      "mꜥkj": 4126,
      "nbꜣbꜣ": 4127,
      "hꞽw": 4128,
      "mhꜣwt": 4129,
      "ḳꜥḥt": 4130,
      "ḥꜣgj": 4131,
      "gꜣšj": 4132,
      "nkꜣj": 4133,
      "ḫmḫm": 4134,
      "ꜥnꜥn": 4135,
      "szwnu̯": 4136,
      "nḏḥḏḥ": 4137,
      "ytpl": 4138,
      "𓍹wnn": 4139,
      "kꜣhs": 4140,
      "mjꜣz": 4141,
      "bmbw": 4142,
      "dnḫnḫ": 4143,
      "ṯktn": 4144,
      "43": 4145,
      "44": 4146,
      "54": 4147,
      "72": 4148,
      "bꜥꜥ": 4149,
      "dz": 4150,
      "dꞽ": 4151,
      "da": 4152,
      "dfꜣ": 4153,
      "fnn": 4154,
      "fgn": 4155,
      "gnw": 4156,
      "hjw": 4157,
      "hḏh": 4158,
      "jṯr": 4159,
      "jkꜣ": 4160,
      "jfn": 4161,
      "ktj": 4162,
      "knn": 4163,
      "mq": 4164,
      "mẖꜣ": 4165,
      "ngb": 4166,
      "pṯ": 4167,
      "qfꜣ": 4168,
      "qzn": 4169,
      "ru̯": 4170,
      "rḥs": 4171,
      "rbr": 4172,
      "tṱ": 4173,
      "tfj": 4174,
      "za": 4175,
      "zrw": 4176,
      "zzi̯": 4177,
      "šu̯": 4178,
      "ḥꞽ": 4179,
      "ḫi̯": 4180,
      "ḳbb": 4181,
      "ẖpw": 4182,
      "ẖzj": 4183,
      "ꜣẖ": 4184,
      "ꜣḳ": 4185,
      "ꜣḏꜣ": 4186,
      "ꜣꞽs": 4187,
      "ꜣdj": 4188,
      "ꜣẖb": 4189,
      "ꜥpj": 4190,
      "ꜥpw": 4191,
      "ꜥpp": 4192,
      "ꞽfd": 4193,
      "ꞽhm": 4194,
      "ꞽṯw": 4195,
      "##sꜥ": 4196,
      "##sḫ": 4197,
      "##ds": 4198,
      "##t𓊇": 4199,
      "##bt": 4200,
      "##ꜥw": 4201,
      "##mz": 4202,
      "##pt": 4203,
      "##rf": 4204,
      "##ḥṯ": 4205,
      "##zy": 4206,
      "##nf": 4207,
      "##ng": 4208,
      "##10": 4209,
      "##≡tw": 4210,
      "##hl": 4211,
      "##k𓊇": 4212,
      "##50": 4213,
      "##ḏs": 4214,
      "##ḏm": 4215,
      "##70": 4216,
      "ḥrjw": 4217,
      "nbnb": 4218,
      "jrsw": 4219,
      "jmzw": 4220,
      "jwm": 4221,
      "jw≡n": 4222,
      "tj≡s": 4223,
      "tjpl": 4224,
      "tjdu": 4225,
      "sntj": 4226,
      "snḥw": 4227,
      "snḫb": 4228,
      "pꜣt": 4229,
      "ḫrr": 4230,
      "ḫri̯": 4231,
      "tꜣꞽ": 4232,
      "##nḫj": 4233,
      "kꜣ≡s": 4234,
      "kꜣwj": 4235,
      "kꜣmw": 4236,
      "nsjsj": 4237,
      "rʾy": 4238,
      "mꜣu̯": 4239,
      "mꜣgs": 4240,
      "ꜥꜣ≡s": 4241,
      "ꜥꜣgꜣ": 4242,
      "wnwt": 4243,
      "jtḫ": 4244,
      "jtḥw": 4245,
      "zꜣtw": 4246,
      "ḥꜣr": 4247,
      "ḥꜣfy": 4248,
      "ḥtpꞽ": 4249,
      "ḥtp≡f": 4250,
      "wsḥ": 4251,
      "ḏi̯≡f": 4252,
      "mnm": 4253,
      "mnsꜣ": 4254,
      "ḫꜣꜣ": 4255,
      "ḫꜣrj": 4256,
      "ḫꜣmm": 4257,
      "ḫny": 4258,
      "ḫnrj": 4259,
      "ḫnpj": 4260,
      "wꜣp": 4261,
      "wꜣj": 4262,
      "wꜣmm": 4263,
      "wꜣṯj": 4264,
      "tp≡f": 4265,
      "smꜥr": 4266,
      "bꜣj": 4267,
      "bꜣgꜣ": 4268,
      "wtwt": 4269,
      "jbs": 4270,
      "ḥnr": 4271,
      "ḥntꞽ": 4272,
      "nnʾ": 4273,
      "stnw": 4274,
      "wjwj": 4275,
      "wjyt": 4276,
      "ḫrwy": 4277,
      "mspr": 4278,
      "msšꜣ": 4279,
      "msḫt": 4280,
      "pnjꜣ": 4281,
      "jꜣmꜣ": 4282,
      "##jry": 4283,
      "sšw": 4284,
      "sꜣ≡f": 4285,
      "sꜣẖb": 4286,
      "ḏꜣꞽs": 4287,
      "hꜣbnj": 4288,
      "ḫprpw": 4289,
      "sḏt": 4290,
      "sḏꜥ": 4291,
      "bjbj": 4292,
      "ḏry": 4293,
      "ḏr≡": 4294,
      "ḏrtj": 4295,
      "nwḫ": 4296,
      "tnt": 4297,
      "tntj": 4298,
      "nḏtj": 4299,
      "nḏrw": 4300,
      "mwnf": 4301,
      "ṯnꞽ": 4302,
      "nḥni̯": 4303,
      "sḥḥ": 4304,
      "sḥqr": 4305,
      "sḥꜣw": 4306,
      "sḥjḥ": 4307,
      "ṯꜣꜣ": 4308,
      "sbqꜣ": 4309,
      "sbty": 4310,
      "mtk": 4311,
      "jsdn": 4312,
      "spnꜥ": 4313,
      "bwy": 4314,
      "bwn": 4315,
      "rnpwt": 4316,
      "grw": 4317,
      "##wꜣḥ": 4318,
      "ḏsḏs": 4319,
      "ꞽmꜣm": 4320,
      "mꜣꜣ≡f": 4321,
      "gmḥw": 4322,
      "gmḥs": 4323,
      "gsr": 4324,
      "rwwj": 4325,
      "pḥs": 4326,
      "pḥt": 4327,
      "jpꜣ": 4328,
      "wsrkn": 4329,
      "nḫtṱ": 4330,
      "rmrm": 4331,
      "dwꜣy": 4332,
      "šꜣp": 4333,
      "šꜣbw": 4334,
      "ꜥnnw": 4335,
      "sꜥsꜥ": 4336,
      "ḏḥtj": 4337,
      "špsꞽ": 4338,
      "ꜥqn": 4339,
      "wḥs": 4340,
      "sṯsi̯": 4341,
      "jꜥš": 4342,
      "wdnw": 4343,
      "rsf": 4344,
      "rsꞽ": 4345,
      "ḥzt": 4346,
      "bꜣky": 4347,
      "dmm": 4348,
      "qdwt": 4349,
      "sšmj": 4350,
      "mšš": 4351,
      "sjḥ": 4352,
      "qrrj": 4353,
      "ḥtꞽ": 4354,
      "šdn": 4355,
      "wnmw": 4356,
      "djꜣ": 4357,
      "jdt": 4358,
      "ꞽntꞽ": 4359,
      "tꞽꜣ": 4360,
      "skk": 4361,
      "sksn": 4362,
      "mꜥy": 4363,
      "mꜥq": 4364,
      "mꜥtn": 4365,
      "nʾwt": 4366,
      "kmm": 4367,
      "kmw": 4368,
      "mnwy": 4369,
      "mrrw": 4370,
      "sdd": 4371,
      "sdwꜣ": 4372,
      "sbꜣw": 4373,
      "sbꜣg": 4374,
      "jꜣbw": 4375,
      "nhr": 4376,
      "nhz": 4377,
      "wꜣḥwꜣḥ": 4378,
      "qrst": 4379,
      "sprw": 4380,
      "nḏmw": 4381,
      "ꜥḏi̯": 4382,
      "ꜥby": 4383,
      "ṯzj": 4384,
      "dpt": 4385,
      "ḥḥi̯": 4386,
      "gꜣꜣ": 4387,
      "gꜣgꜣ": 4388,
      "gꜣfj": 4389,
      "ẖꜣꜣ": 4390,
      "ẖꜣy": 4391,
      "wjꜣ≡f": 4392,
      "ꜣww": 4393,
      "pꜥy": 4394,
      "qsj": 4395,
      "jꜣwy": 4396,
      "dꜣꞽr": 4397,
      "ḫww": 4398,
      "mks": 4399,
      "i̯≡s": 4400,
      "njt": 4401,
      "sẖrj": 4402,
      "sꜥḥ≡f": 4403,
      "ḏꜥn": 4404,
      "šnwj": 4405,
      "znṯ": 4406,
      "znbꜣ": 4407,
      "trp": 4408,
      "sqrj": 4409,
      "≡fj": 4410,
      "sṯꜣz": 4411,
      "##twy": 4412,
      "šnꜥy": 4413,
      "wḥꜥw": 4414,
      "ddw": 4415,
      "ḥpp": 4416,
      "nšnn": 4417,
      "zšj": 4418,
      "zši̯": 4419,
      "mntt": 4420,
      "ḏbꜣw": 4421,
      "ḫnsꜣ": 4422,
      "ḫnsꜣy": 4423,
      "ḥnkw": 4424,
      "šbd": 4425,
      "pjꜣy": 4426,
      "jꜣrw": 4427,
      "zby": 4428,
      "dnd": 4429,
      "dnꞽ": 4430,
      "ꞽꜣš": 4431,
      "šrw": 4432,
      "jnb≡s": 4433,
      "##pwy": 4434,
      "zwṯ": 4435,
      "zwrj": 4436,
      "nrꜣw": 4437,
      "mtrḫ": 4438,
      "ḫbbj": 4439,
      "mzmz": 4440,
      "wnḫwı͗": 4441,
      "rkḥw": 4442,
      "mꞽz": 4443,
      "rtḥty": 4444,
      "ꜥgwt": 4445,
      "mmrm": 4446,
      "ꜣmꞽ": 4447,
      "ꜥdy": 4448,
      "mꜣwy": 4449,
      "ḥṯs": 4450,
      "ḫdb": 4451,
      "qbqb": 4452,
      "bꜥḥw": 4453,
      "fꜣꜣ": 4454,
      "ḥbnnwt": 4455,
      "bsj": 4456,
      "tḫw": 4457,
      "tḫbs": 4458,
      "sḫnš": 4459,
      "nẖn": 4460,
      "ꜥqꜣn": 4461,
      "bꞽk": 4462,
      "jhbw": 4463,
      "jhhy": 4464,
      "npnp": 4465,
      "ꜥḏdj": 4466,
      "twjꜣ": 4467,
      "kfj": 4468,
      "mẖꜥq": 4469,
      "ḫḫm": 4470,
      "wḫdw": 4471,
      "ṯḥs": 4472,
      "ṯbww": 4473,
      "30000": 4474,
      "gnẖ": 4475,
      "smḥj": 4476,
      "ꜥnḏw": 4477,
      "šbnw": 4478,
      "hpn": 4479,
      "wꜥwy": 4480,
      "knkn": 4481,
      "sꜣbj": 4482,
      "sꜣqḥ": 4483,
      "ꜥꜥw": 4484,
      "ꜥꜥꜣm": 4485,
      "jkj": 4486,
      "ꞽptf": 4487,
      "hbq": 4488,
      "nꞽw": 4489,
      "jbjb": 4490,
      "gꜣbgꜣ": 4491,
      "shp": 4492,
      "ꜥmꜣṯ": 4493,
      "i͗s": 4494,
      "i͗y": 4495,
      "i͗rj": 4496,
      "i͗dj": 4497,
      "i͗dw": 4498,
      "smꜣmw": 4499,
      "130": 4500,
      "šmꜣꞽ": 4501,
      "ḳrr": 4502,
      "jqw": 4503,
      "nzꜣ": 4504,
      "ḫjḫj": 4505,
      "ꜣgbgb": 4506,
      "ḫbss": 4507,
      "ngꜣgꜣ": 4508,
      "tšjw": 4509,
      "štjw": 4510,
      "whb": 4511,
      "hbnw": 4512,
      "whꜣn": 4513,
      "ẖpꜥ": 4514,
      "##tꞽw": 4515,
      "wꜣḫj": 4516,
      "ꜥẖi̯": 4517,
      "jꜣkw": 4518,
      "jsfy": 4519,
      "brt": 4520,
      "bry": 4521,
      "šꜣbd": 4522,
      "nṯb": 4523,
      "ꞽꞽꞽ": 4524,
      "wšꜣm": 4525,
      "ꞽšš": 4526,
      "ṯjf": 4527,
      "mꜥrd": 4528,
      "krjw≡f": 4529,
      "mḫntj": 4530,
      "jꜥnꜥ": 4531,
      "sjwr": 4532,
      "wgꜣs": 4533,
      "yns": 4534,
      "ꜥpnn": 4535,
      "ꜥpꜣy": 4536,
      "ḥntʾ": 4537,
      "jsdd": 4538,
      "jsdz": 4539,
      "mꜥꜣꜥ": 4540,
      "nprj": 4541,
      "tjmḥj": 4542,
      "ꜥgꜣy": 4543,
      "sdgꜣw": 4544,
      "ꜣjr≡f": 4545,
      "tjḥwꜣ": 4546,
      "tjḥnw": 4547,
      "sḥbi̯": 4548,
      "ḫsdḏ": 4549,
      "zẖi̯": 4550,
      "ꜣgg": 4551,
      "mnhz": 4552,
      "wzm": 4553,
      "snsnj": 4554,
      "fss": 4555,
      "ꜣfꜥ": 4556,
      "ssḏm": 4557,
      "ꞽꜣḫi̯": 4558,
      "nḏdḏd": 4559,
      "hqs": 4560,
      "sḳnn": 4561,
      "sšsꜣw": 4562,
      "ꜥšgꜣj": 4563,
      "nssq": 4564,
      "hḏhḏ": 4565,
      "zahl": 4566,
      "zrwḫ": 4567,
      "snḫbḫb": 4568,
      "mꜣu̯i̯": 4569,
      "pnjꜣt": 4570,
      "41": 4571,
      "58": 4572,
      "56": 4573,
      "62": 4574,
      "73": 4575,
      "88": 4576,
      "bwt": 4577,
      "bṯꜣ": 4578,
      "df": 4579,
      "dnm": 4580,
      "dnw": 4581,
      "dḳr": 4582,
      "ff": 4583,
      "fg": 4584,
      "fnw": 4585,
      "gnm": 4586,
      "hꜥ": 4587,
      "htp": 4588,
      "hwi̯": 4589,
      "hkr": 4590,
      "hṯt": 4591,
      "in": 4592,
      "jṱ": 4593,
      "jkr": 4594,
      "jḏj": 4595,
      "kṯn": 4596,
      "m𓊇": 4597,
      "ma": 4598,
      "na": 4599,
      "npw": 4600,
      "ph": 4601,
      "pwt": 4602,
      "pjs": 4603,
      "qḥ": 4604,
      "q≡f": 4605,
      "qtꜣ": 4606,
      "qtm": 4607,
      "qrjw": 4608,
      "rg": 4609,
      "ra": 4610,
      "rkr": 4611,
      "rwty": 4612,
      "sa": 4613,
      "sꞽs": 4614,
      "tkr": 4615,
      "t≡j": 4616,
      "wi": 4617,
      "w≡j": 4618,
      "w≡sn": 4619,
      "yꜥ": 4620,
      "yj": 4621,
      "zẖr": 4622,
      "šri̯": 4623,
      "ḥpr": 4624,
      "ḥpd": 4625,
      "ḫš": 4626,
      "ḳḏw": 4627,
      "ṯjr": 4628,
      "ṯbn": 4629,
      "ṯrj": 4630,
      "ṯjw": 4631,
      "ṯjꜣ": 4632,
      "ṱ≡f": 4633,
      "ẖṯ": 4634,
      "ẖti̯": 4635,
      "≡w": 4636,
      "≡tw": 4637,
      "ꜣꞽ": 4638,
      "ꜣwt": 4639,
      "ꜣwꜣ": 4640,
      "ꜣꜥb": 4641,
      "ꜣti̯": 4642,
      "ꜥt": 4643,
      "ꜥy": 4644,
      "ꜥbḥ": 4645,
      "ꜥ≡j": 4646,
      "ꞽi̯": 4647,
      "ꞽṯr": 4648,
      "ꞽkn": 4649,
      "ꞽṯn": 4650,
      "##dḥ": 4651,
      "##ꜣs": 4652,
      "##bq": 4653,
      "##bšb": 4654,
      "##ꜥḏ": 4655,
      "##mḥ": 4656,
      "##pn": 4657,
      "##pḫ": 4658,
      "##rs": 4659,
      "##yḫ": 4660,
      "##ḥr": 4661,
      "##zꜣ": 4662,
      "##zḥ": 4663,
      "##šs": 4664,
      "##šn": 4665,
      "##ht": 4666,
      "##ẖt": 4667,
      "##ꞽꜣ": 4668,
      "##gt": 4669,
      "##ḏꜥ": 4670,
      "##76": 4671,
      "##ṯṯ": 4672,
      "##20": 4673,
      "##40": 4674,
      "##400": 4675,
      "ḥr≡j": 4676,
      "ḥrti̯": 4677,
      "pl≡": 4678,
      "pl≡sn": 4679,
      "jrs": 4680,
      "jrk": 4681,
      "jm≡f": 4682,
      "jmby": 4683,
      "jw≡s": 4684,
      "jwhꜣ": 4685,
      "jwdj": 4686,
      "jwgr": 4687,
      "snty": 4688,
      "snnm": 4689,
      "snḥꜣ": 4690,
      "nṯrw": 4691,
      "pꜣwt": 4692,
      "pꜣ≡s": 4693,
      "pꜣꜥr": 4694,
      "pꜣwtj": 4695,
      "rꜥy": 4696,
      "rꜥjꜣ": 4697,
      "pr≡sn": 4698,
      "jnbꜣ": 4699,
      "jnsi̯": 4700,
      "jntn": 4701,
      "jndb": 4702,
      "jnḥw": 4703,
      "tꜣf": 4704,
      "nftft": 4705,
      "nfrwy": 4706,
      "kꜣs": 4707,
      "nsq": 4708,
      "nsꞽs": 4709,
      "nsns": 4710,
      "ḥmz": 4711,
      "ḥmꞽ": 4712,
      "mꜣꞽ": 4713,
      "mꜣmw": 4714,
      "mꜣkj": 4715,
      "ꜥꜣp": 4716,
      "ḏdt": 4717,
      "twh": 4718,
      "tw≡f": 4719,
      "twhꜣ": 4720,
      "wns": 4721,
      "wny": 4722,
      "wnu̯": 4723,
      "swd": 4724,
      "swdn": 4725,
      "swḫt": 4726,
      "swmt": 4727,
      "jtf": 4728,
      "jtjw": 4729,
      "jt≡j": 4730,
      "zꜣy": 4731,
      "ḥꜣqꜣ": 4732,
      "ḥꜣwty": 4733,
      "ḥꜣdj": 4734,
      "ḥꜣḥꜣ": 4735,
      "wsdn": 4736,
      "rn≡": 4737,
      "mnwt": 4738,
      "mnty": 4739,
      "ḫꜣt": 4740,
      "ḫnꞽ": 4741,
      "mꜣꜥtyw": 4742,
      "dupl": 4743,
      "wtḫ": 4744,
      "jbd": 4745,
      "jbkꜣ": 4746,
      "ḥnbw": 4747,
      "nnt": 4748,
      "sḫnn": 4749,
      "stb": 4750,
      "stꞽ": 4751,
      "stꜣw": 4752,
      "msḫ": 4753,
      "msṱ": 4754,
      "wḏw": 4755,
      "wḏbw": 4756,
      "ḫtw": 4757,
      "ḫtꞽw": 4758,
      "nꜣb": 4759,
      "nꜣš": 4760,
      "nꜣḥꜣ": 4761,
      "pnn": 4762,
      "pnj": 4763,
      "jꜣwt": 4764,
      "jꜣḥs": 4765,
      "##jrj": 4766,
      "sšy": 4767,
      "sšj": 4768,
      "sꜣn": 4769,
      "sꜣh": 4770,
      "sꜣwty": 4771,
      "sꜣmm": 4772,
      "mḥs": 4773,
      "mḥrj": 4774,
      "hꜣqꜣ": 4775,
      "hꜣnw": 4776,
      "sḏsr": 4777,
      "bjṯt": 4778,
      "rḏḏ": 4779,
      "tnꞽ": 4780,
      "šnp": 4781,
      "nḏy": 4782,
      "nḏḏ": 4783,
      "nḏ≡f": 4784,
      "mdt": 4785,
      "ꜥḥꜥj": 4786,
      "ꜥḥꜥ≡f": 4787,
      "rḏi̯≡f": 4788,
      "ṯnꜣ": 4789,
      "ṯnfj": 4790,
      "jyꜣy": 4791,
      "rḫ≡f": 4792,
      "rḫtj": 4793,
      "rḫ≡j": 4794,
      "sḥq": 4795,
      "sḥwꜣ": 4796,
      "sḥwj": 4797,
      "sḥꜥi̯": 4798,
      "ytt": 4799,
      "yt≡f": 4800,
      "ṯꜣb": 4801,
      "ṯꜣpr": 4802,
      "ṯꜣtj": 4803,
      "sbg": 4804,
      "sbḥw": 4805,
      "mtꞽ": 4806,
      "mtrj": 4807,
      "mtꜣw": 4808,
      "ḥḏb": 4809,
      "rdt": 4810,
      "rdḥw": 4811,
      "jsn": 4812,
      "jsfj": 4813,
      "nḫr": 4814,
      "nḫnḫ": 4815,
      "nḫbw": 4816,
      "spw": 4817,
      "wḏꜣj": 4818,
      "hrw≡sn": 4819,
      "rnpt": 4820,
      "ḥꜥj": 4821,
      "grj": 4822,
      "tmy": 4823,
      "tmw": 4824,
      "tmtm": 4825,
      "ḫfy": 4826,
      "##wꜣj": 4827,
      "ḥst": 4828,
      "bnt": 4829,
      "bnu̯": 4830,
      "ḏss": 4831,
      "ḫꜥrw": 4832,
      "ṯwṯw": 4833,
      "nmtꜣ": 4834,
      "ꞽmw": 4835,
      "ꞽrt": 4836,
      "ꞽrtꞽw": 4837,
      "ntn": 4838,
      "ntꞽ": 4839,
      "##000": 4840,
      "sḫm≡f": 4841,
      "sḏmy": 4842,
      "jwi̯≡": 4843,
      "rwr": 4844,
      "rwꞽ": 4845,
      "pḥd": 4846,
      "pḥtj": 4847,
      "pḥww": 4848,
      "jpdw": 4849,
      "nḫtꞽ": 4850,
      "rmnn": 4851,
      "qꜣꞽ": 4852,
      "šꜣn": 4853,
      "šꜣš": 4854,
      "šꜣṯw": 4855,
      "ꜥnb": 4856,
      "ꜥntꜣ": 4857,
      "ꜥnnḫj": 4858,
      "sꜥqꜣ": 4859,
      "jṯf": 4860,
      "ꜥqꜥq": 4861,
      "jwnry": 4862,
      "sṯt": 4863,
      "sṯḥn": 4864,
      "jꜥy": 4865,
      "bꜣkw": 4866,
      "kyj": 4867,
      "qd≡k": 4868,
      "šmꜥj": 4869,
      "mšrw": 4870,
      "qry": 4871,
      "qnq": 4872,
      "jḥꜥ": 4873,
      "jḥtj": 4874,
      "djf": 4875,
      "jdg": 4876,
      "jzt": 4877,
      "ꞽns": 4878,
      "ꞽnr": 4879,
      "ꞽnꞽ": 4880,
      "sktj": 4881,
      "mꜥj": 4882,
      "mꜥḏꜣ": 4883,
      "hꜣbt": 4884,
      "hꜣbj": 4885,
      "ḥꜣbi̯": 4886,
      "ḥbꜥ": 4887,
      "drr": 4888,
      "nʾt": 4889,
      "kmwj": 4890,
      "ḫpt": 4891,
      "ḫpwš": 4892,
      "mnwḥ": 4893,
      "ꜣsq": 4894,
      "ꜣsḫ": 4895,
      "##tjt": 4896,
      "mrrꞽ": 4897,
      "mrr≡f": 4898,
      "sdp": 4899,
      "sdn": 4900,
      "sdf": 4901,
      "sdg": 4902,
      "smꜣj": 4903,
      "snbw": 4904,
      "ꜥḥꜣty": 4905,
      "jꜣby": 4906,
      "ḫꜥi̯≡": 4907,
      "nhwt": 4908,
      "nhjs": 4909,
      "ẖꜣ": 4910,
      "sfi̯": 4911,
      "ꜥšꜣw": 4912,
      "gbi̯": 4913,
      "gbty": 4914,
      "gbtjw": 4915,
      "ꜥḏw": 4916,
      "ꜥḏj": 4917,
      "ꞽwḥ": 4918,
      "ꞽwnw": 4919,
      "ṯzt": 4920,
      "wꜣsm": 4921,
      "dpḥ": 4922,
      "dpj": 4923,
      "snḏ≡f": 4924,
      "gꜣf": 4925,
      "gꜣwꜣ": 4926,
      "ẖꜣw": 4927,
      "mḏqt": 4928,
      "jrjt": 4929,
      "wḫyḫ": 4930,
      "wši̯": 4931,
      "mrḥnn": 4932,
      "ꜣwr": 4933,
      "pꜥpꜥ": 4934,
      "10000": 4935,
      "zḥj": 4936,
      "zḥꞽ": 4937,
      "zḥzḥ": 4938,
      "swꜣgꜣ": 4939,
      "ḥbsw": 4940,
      "ywm": 4941,
      "ḫws": 4942,
      "ḫwn": 4943,
      "ḏbꜥy": 4944,
      "mkt": 4945,
      "ww≡f": 4946,
      "wyw": 4947,
      "wyn": 4948,
      "di≡f": 4949,
      "pḏww": 4950,
      "njn": 4951,
      "njwty": 4952,
      "njꜣw": 4953,
      "tyj": 4954,
      "tyjj": 4955,
      "tjwn": 4956,
      "tjwnj": 4957,
      "sẖk": 4958,
      "sšrr": 4959,
      "sšrw": 4960,
      "ḏꜥḏꜥ": 4961,
      "ꜥprw": 4962,
      "ssꜣ": 4963,
      "ssfj": 4964,
      "jšj": 4965,
      "1600": 4966,
      "znḥ": 4967,
      "znnj": 4968,
      "znzn": 4969,
      "sqfn": 4970,
      "ḥkꜣw": 4971,
      "bjꜣj": 4972,
      "dd≡f": 4973,
      "pzd": 4974,
      "ḫnmw": 4975,
      "nꜥg": 4976,
      "nbsy": 4977,
      "nbsj": 4978,
      "šfi̯": 4979,
      "nšš": 4980,
      "nšḏ": 4981,
      "nšdy": 4982,
      "nšbšb": 4983,
      "ꜥwy": 4984,
      "ꜥwḏr": 4985,
      "spꜣt": 4986,
      "spꜣwt": 4987,
      "pjṯꜣ": 4988,
      "dbḥw": 4989,
      "ṯsb": 4990,
      "zbw": 4991,
      "jwꜣw": 4992,
      "jnnꜣ": 4993,
      "hnd": 4994,
      "mnṯꜣ": 4995,
      "ꞽꜣd": 4996,
      "ꞽꜣꜣ": 4997,
      "ꞽꜣmꜣ": 4998,
      "thh": 4999,
      "šrꜥ": 5000,
      "šrm": 5001,
      "šršr": 5002,
      "bnrꞽ": 5003,
      "zwzw": 5004,
      "wšby": 5005,
      "wṯn": 5006,
      "ḫbj": 5007,
      "ḫbḫ": 5008,
      "ršpw": 5009,
      "wnḫw": 5010,
      "šꜣꜥsḫ": 5011,
      "rkm": 5012,
      "ꞽsp": 5013,
      "ꞽsr": 5014,
      "ꞽyꞽ": 5015,
      "ꜥgw": 5016,
      "sjꜣw": 5017,
      "##snd": 5018,
      "ḫnfy": 5019,
      "ḥṯt": 5020,
      "sqdj": 5021,
      "ḫdd": 5022,
      "ḥꜣtjw": 5023,
      "kkwj": 5024,
      "qmj": 5025,
      "qmnn": 5026,
      "qmḥw": 5027,
      "nkj": 5028,
      "mwtl": 5029,
      "jꜣdj": 5030,
      "bsw": 5031,
      "njsw": 5032,
      "njsj": 5033,
      "wbtj": 5034,
      "dbj": 5035,
      "hnwy": 5036,
      "kjꜣ": 5037,
      "jwtjw": 5038,
      "ksy": 5039,
      "ksꞽ": 5040,
      "npt": 5041,
      "sḏꜣm": 5042,
      "ẖss": 5043,
      "ẖsw": 5044,
      "ḥmsy": 5045,
      "bšṯ": 5046,
      "dgꜣw": 5047,
      "ḫḫw": 5048,
      "bby": 5049,
      "rꜣy": 5050,
      "##ꜣwj": 5051,
      "ṯḥr": 5052,
      "ꜥḏꜣw": 5053,
      "knmwt": 5054,
      "hhy": 5055,
      "bꜣbꜣt": 5056,
      "ḫnrꞽ": 5057,
      "snw≡f": 5058,
      "##tm𓊇": 5059,
      "sḏdi̯": 5060,
      "swnu̯": 5061,
      "npꜣt": 5062,
      "bꜥꜣ": 5063,
      "bꜥj": 5064,
      "tw≡nn": 5065,
      "wrdw": 5066,
      "pnꜥ≡f": 5067,
      "hpnn": 5068,
      "knḥ": 5069,
      "knk": 5070,
      "nqw": 5071,
      "nqf": 5072,
      "ṯmt": 5073,
      "ṯmḥ": 5074,
      "ꜥꜥwj": 5075,
      "dḥrj": 5076,
      "dḥdḥ": 5077,
      "bꜣgj": 5078,
      "hmh": 5079,
      "ḥꜣwr": 5080,
      "hbjw": 5081,
      "rḥb": 5082,
      "tftf": 5083,
      "ngi̯": 5084,
      "ngng": 5085,
      "rjꜣ": 5086,
      "ꞽdi̯": 5087,
      "nḏnḏtj": 5088,
      "gꜣbg": 5089,
      "mssj": 5090,
      "ḥjy": 5091,
      "mḫꜣy": 5092,
      "dgg": 5093,
      "i͗w": 5094,
      "i͗n": 5095,
      "i͗jw": 5096,
      "i͗ḥy": 5097,
      "mndm": 5098,
      "kšw": 5099,
      "šndy": 5100,
      "138": 5101,
      "132": 5102,
      "šjk": 5103,
      "mhj": 5104,
      "zḫr": 5105,
      "jqh": 5106,
      "wgm": 5107,
      "wgp": 5108,
      "ḏꜣyw": 5109,
      "srdd": 5110,
      "zꜣṯw": 5111,
      "štṯ": 5112,
      "tks": 5113,
      "whj": 5114,
      "whnj": 5115,
      "250": 5116,
      "hbny": 5117,
      "ẖꜥꜣ": 5118,
      "ꞽꜥꜣ": 5119,
      "whꜣj": 5120,
      "zbnbn": 5121,
      "jhꜣb": 5122,
      "ndw": 5123,
      "ꞽꜣbt": 5124,
      "szꜣ": 5125,
      "rqw": 5126,
      "njꜣj": 5127,
      "bḫnt": 5128,
      "230": 5129,
      "wꜣḫꞽ": 5130,
      "bḫnj": 5131,
      "sꜥrt": 5132,
      "ꜣht": 5133,
      "ꜣhw": 5134,
      "mskj": 5135,
      "ṯzmy": 5136,
      "nṯḥṯ": 5137,
      "ꜥꜣꜥꜣ": 5138,
      "225": 5139,
      "ꞽšst": 5140,
      "ḥtp≡st": 5141,
      "rwhꜣwj": 5142,
      "bṯy": 5143,
      "ṯjm": 5144,
      "šṯy": 5145,
      "sgꜣb": 5146,
      "7000": 5147,
      "dšdš": 5148,
      "kꜣw≡s": 5149,
      "btš": 5150,
      "btk": 5151,
      "qwr": 5152,
      "ḥnyt": 5153,
      "šꜣmswt": 5154,
      "gwf": 5155,
      "wꜣḏyt": 5156,
      "sswrj": 5157,
      "nšnꞽ": 5158,
      "zkzk": 5159,
      "ꜥpšꜣ": 5160,
      "msnḥ": 5161,
      "ṯꜣmwt": 5162,
      "rhni̯": 5163,
      "ḥdq": 5164,
      "msṯp": 5165,
      "mꜥkḥꜣ": 5166,
      "hnjnj": 5167,
      "tjmḥy": 5168,
      "ṯmss": 5169,
      "pꜣḫd": 5170,
      "kpnj": 5171,
      "khꜣb": 5172,
      "khꜣbw": 5173,
      "pfss": 5174,
      "ẖtẖt": 5175,
      "ꞽwtꞽ": 5176,
      "##rmt": 5177,
      "ḥꜣgꞽ": 5178,
      "ḥnswꜣ": 5179,
      "pfꜣw": 5180,
      "szwr": 5181,
      "snhsi̯": 5182,
      "bꜣnd": 5183,
      "jꜥꜥnj": 5184,
      "ꜣpt": 5185,
      "nkꜣkꜣ": 5186,
      "mnhḏ": 5187,
      "ḫꜥj≡f": 5188,
      "qfdr": 5189,
      "šꞽk": 5190,
      "ꞽṯꞽ": 5191,
      "ꜥnꜥy": 5192,
      "ḫzd": 5193,
      "sjdi̯": 5194,
      "šꜥtı͗": 5195,
      "2000000": 5196,
      "yhj": 5197,
      "yhꞽ": 5198,
      "ḥnmnm": 5199,
      "msḫꜣꜣ": 5200,
      "qꜣmd": 5201,
      "ṯrwrw": 5202,
      "rbrn": 5203,
      "i̯≡st": 5204,
      "nay": 5205,
      "rkrk": 5206,
      "ḳḏwdn": 5207,
      "jntnt": 5208,
      "nsꞽsꞽ": 5209,
      "nṯḥṯḥ": 5210,
      "00": 5211,
      "1q": 5212,
      "48": 5213,
      "51": 5214,
      "59": 5215,
      "61": 5216,
      "66": 5217,
      "69": 5218,
      "75": 5219,
      "78": 5220,
      "79": 5221,
      "96": 5222,
      "bkn": 5223,
      "btw": 5224,
      "bzj": 5225,
      "bqn": 5226,
      "bḫb": 5227,
      "dt": 5228,
      "dḏ": 5229,
      "drj": 5230,
      "dḏꜣ": 5231,
      "dkꜣ": 5232,
      "dnḏ": 5233,
      "dfn": 5234,
      "dḥw": 5235,
      "dfd": 5236,
      "drjw": 5237,
      "dḏh": 5238,
      "fi̯": 5239,
      "fjw": 5240,
      "fsw": 5241,
      "gꜥ": 5242,
      "gḏ": 5243,
      "go": 5244,
      "hf": 5245,
      "hṯ": 5246,
      "htꜣ": 5247,
      "hkꜣ": 5248,
      "htw": 5249,
      "ip": 5250,
      "ia": 5251,
      "inb": 5252,
      "jqꜣ": 5253,
      "jqn": 5254,
      "jḏḥ": 5255,
      "knw": 5256,
      "kḥs": 5257,
      "kdu": 5258,
      "kzi̯": 5259,
      "kjry": 5260,
      "mqr": 5261,
      "mgs": 5262,
      "nẖr": 5263,
      "nṯn": 5264,
      "on": 5265,
      "pa": 5266,
      "pḫt": 5267,
      "qy": 5268,
      "qꞽ": 5269,
      "qqꜣ": 5270,
      "rb": 5271,
      "rz": 5272,
      "rtj": 5273,
      "rqr": 5274,
      "rhꜣ": 5275,
      "rpj": 5276,
      "rhb": 5277,
      "rby": 5278,
      "rjrj": 5279,
      "sṯr": 5280,
      "s≡f": 5281,
      "tẖ": 5282,
      "tl": 5283,
      "ta": 5284,
      "tgꜣ": 5285,
      "t≡k": 5286,
      "vb": 5287,
      "wwt": 5288,
      "wpy": 5289,
      "wfj": 5290,
      "w≡tw": 5291,
      "yy": 5292,
      "y≡": 5293,
      "yḥj": 5294,
      "yhy": 5295,
      "yrmt": 5296,
      "zrj": 5297,
      "zty": 5298,
      "ztt": 5299,
      "šq": 5300,
      "šk": 5301,
      "ši": 5302,
      "špy": 5303,
      "ḏq": 5304,
      "ḏh": 5305,
      "ḏpr": 5306,
      "ḏbn": 5307,
      "ḏfd": 5308,
      "ḏhn": 5309,
      "ḥbꜣ": 5310,
      "ḥdj": 5311,
      "ḥbꜣbꜣ": 5312,
      "ḫḏ": 5313,
      "ḳb": 5314,
      "ḳj": 5315,
      "ḳbḥ": 5316,
      "ḳꜣw": 5317,
      "ṯ𓊇": 5318,
      "ṯh": 5319,
      "ṯkn": 5320,
      "ṯhꜣ": 5321,
      "ṯtn": 5322,
      "ẖm": 5323,
      "ꜣkꜣ": 5324,
      "ꜣjw": 5325,
      "ꜣu̯": 5326,
      "ꜣtw": 5327,
      "ꜣfj": 5328,
      "ꜣrr": 5329,
      "ꜣkw": 5330,
      "ꜥz": 5331,
      "ꜥk": 5332,
      "ꜥꞽ": 5333,
      "ꜥwt": 5334,
      "ꜥpy": 5335,
      "ꜥ≡s": 5336,
      "ꜥtr": 5337,
      "ꜥꜥb": 5338,
      "ꜥfj": 5339,
      "ꜥhr": 5340,
      "ꞽq": 5341,
      "ꞽpy": 5342,
      "ꞽgꜣ": 5343,
      "ꞽfn": 5344,
      "ꞽpp": 5345,
      "𓊆j": 5346,
      "𓊆jꜣ": 5347,
      "𓍹n": 5348,
      "##sb": 5349,
      "##sp": 5350,
      "##s𓊇": 5351,
      "##sgs": 5352,
      "##ssf": 5353,
      "##sds": 5354,
      "##dg": 5355,
      "##di̯": 5356,
      "##dwj": 5357,
      "##dqd": 5358,
      "##ꜣn": 5359,
      "##bꞽ": 5360,
      "##bḏ": 5361,
      "##bḫb": 5362,
      "##ꜥꜣ": 5363,
      "##ꜥn": 5364,
      "##ꜥj": 5365,
      "##ꜥꜣm": 5366,
      "##ꜥḏj": 5367,
      "##my": 5368,
      "##m𓊇": 5369,
      "##mgm": 5370,
      "##ps": 5371,
      "##pg": 5372,
      "##pꜣw": 5373,
      "##rt": 5374,
      "##r≡f": 5375,
      "##rtb": 5376,
      "##ḥt": 5377,
      "##zp": 5378,
      "##nꜣ": 5379,
      "##njw": 5380,
      "##15": 5381,
      "##šꜥ": 5382,
      "##šš": 5383,
      "##šk": 5384,
      "##šps": 5385,
      "##qy": 5386,
      "##qj": 5387,
      "##hwj": 5388,
      "##ẖd": 5389,
      "##ẖbw": 5390,
      "##ḫš": 5391,
      "##kš": 5392,
      "##kšr": 5393,
      "##gj": 5394,
      "##lm": 5395,
      "##llm": 5396,
      "##ir": 5397,
      "##ʾwj": 5398,
      "##ṯ𓊇": 5399,
      "##ṯnn": 5400,
      "##ḳḥ": 5401,
      "##er": 5402,
      "##200": 5403,
      "##33": 5404,
      "##600": 5405,
      "ḥr𓊇": 5406,
      "ḥrtj": 5407,
      "pl≡s": 5408,
      "nbjw": 5409,
      "nbty": 5410,
      "jrtꜣ": 5411,
      "jmš": 5412,
      "jmjr": 5413,
      "jmbj": 5414,
      "jmtwy": 5415,
      "jwb": 5416,
      "jwh": 5417,
      "jwpy": 5418,
      "jwrj": 5419,
      "jwty": 5420,
      "jwbw": 5421,
      "jwpl": 5422,
      "jwrw": 5423,
      "jwšš": 5424,
      "tjtw": 5425,
      "tjsw": 5426,
      "tjꜥꜣm": 5427,
      "snr": 5428,
      "snz": 5429,
      "sn≡f": 5430,
      "snḏꜣ": 5431,
      "snkn": 5432,
      "sn≡s": 5433,
      "snḫn": 5434,
      "snsw": 5435,
      "nṯry": 5436,
      "nṯr≡s": 5437,
      "pꜣḳ": 5438,
      "pꜣṯṯ": 5439,
      "ḫrs": 5440,
      "ḫrnt": 5441,
      "jnꜣ": 5442,
      "jni": 5443,
      "jntw": 5444,
      "jnḏw": 5445,
      "tꜣm": 5446,
      "tꜣr": 5447,
      "tꜣ≡f": 5448,
      "tꜣnw": 5449,
      "tꜣḥn": 5450,
      "tꜣḥw": 5451,
      "tꜣṯnn": 5452,
      "nfrꞽ": 5453,
      "nfrty": 5454,
      "kꜣf": 5455,
      "kꜣwt": 5456,
      "kꜣhꜣ": 5457,
      "kꜣwy": 5458,
      "kꜣjry": 5459,
      "##wtw": 5460,
      "##wtı͗": 5461,
      "nsꜣ": 5462,
      "ḥmzi̯": 5463,
      "mrš": 5464,
      "mrq": 5465,
      "mrḫ": 5466,
      "mri": 5467,
      "mrjw": 5468,
      "mr≡s": 5469,
      "mrsl": 5470,
      "mꜣẖ": 5471,
      "mꜣwꜣ": 5472,
      "mꜣḥw": 5473,
      "mꜣṯꜣ": 5474,
      "ꜥꜣgs": 5475,
      "ḏdḥw": 5476,
      "ꜥnḫt": 5477,
      "twḫ": 5478,
      "twpl": 5479,
      "wnr": 5480,
      "wnꞽ": 5481,
      "wnṯ": 5482,
      "wnṯr": 5483,
      "wnfj": 5484,
      "swg": 5485,
      "swjw": 5486,
      "swšr": 5487,
      "swḥw": 5488,
      "swgm": 5489,
      "jt≡": 5490,
      "jtʾ": 5491,
      "zꜣj": 5492,
      "zꜣ≡s": 5493,
      "wrk": 5494,
      "wrꞽ": 5495,
      "ḥꜣs": 5496,
      "ḥꜣ≡": 5497,
      "ḥꜣk": 5498,
      "ḥꜣtw": 5499,
      "ḥꜣsw": 5500,
      "ḥꜣrr": 5501,
      "wꜥ≡f": 5502,
      "wss": 5503,
      "wsir": 5504,
      "ḏi̯w": 5505,
      "ḏi̯≡s": 5506,
      "rnpy": 5507,
      "rn≡w": 5508,
      "mnk": 5509,
      "mntyw": 5510,
      "ḫnwt": 5511,
      "wꜣd": 5512,
      "wꜣꜣ": 5513,
      "wꜣṯ": 5514,
      "wꜣwt": 5515,
      "pwjw": 5516,
      "pwgꜣ": 5517,
      "pwrm": 5518,
      "tpt": 5519,
      "tpr": 5520,
      "tpn": 5521,
      "mꜣꜥw": 5522,
      "smšr": 5523,
      "smtm": 5524,
      "du≡s": 5525,
      "bꜣt": 5526,
      "bꜣḏ": 5527,
      "bꜣ≡sn": 5528,
      "wtr": 5529,
      "wtnw": 5530,
      "jbḫ": 5531,
      "jbjw": 5532,
      "jbzꜣ": 5533,
      "ḥnwt": 5534,
      "ꜣḫꜣ": 5535,
      "ꜣḫb": 5536,
      "ꜣḫf": 5537,
      "ꜣḫꞽ": 5538,
      "ꜣḫtj": 5539,
      "nnn": 5540,
      "nnwt": 5541,
      "sḫnw": 5542,
      "sḫwy": 5543,
      "sḫbḫb": 5544,
      "mjb": 5545,
      "mjm": 5546,
      "mjy": 5547,
      "mjnn": 5548,
      "mjꜥm": 5549,
      "stk": 5550,
      "stwꜣ": 5551,
      "stjw": 5552,
      "sthb": 5553,
      "wjw": 5554,
      "wjṯ": 5555,
      "ḥwsw": 5556,
      "msr": 5557,
      "msš": 5558,
      "mstp": 5559,
      "msjw": 5560,
      "mstr": 5561,
      "mstt": 5562,
      "mshr": 5563,
      "msbb": 5564,
      "wḏt": 5565,
      "wḏnw": 5566,
      "wḏ≡s": 5567,
      "wḏḥw": 5568,
      "ꜥḥm": 5569,
      "ꜥḥwtj": 5570,
      "nꜣp": 5571,
      "nꜣjr": 5572,
      "pnꜣ": 5573,
      "jꜣḥ": 5574,
      "jꜣz": 5575,
      "jꜣḏ": 5576,
      "jꜣrj": 5577,
      "jꜣsj": 5578,
      "jꜣtjw": 5579,
      "jꜣnr": 5580,
      "ḫnt≡f": 5581,
      "sšwj": 5582,
      "sšzp": 5583,
      "sꜣp": 5584,
      "sꜣg": 5585,
      "sꜣḳ": 5586,
      "sꜣwt": 5587,
      "sꜣkꜣ": 5588,
      "sꜣ≡s": 5589,
      "sꜣhd": 5590,
      "sꜣẖbw": 5591,
      "mḥjw": 5592,
      "mḥnw": 5593,
      "mḥtt": 5594,
      "mḥḏm": 5595,
      "ḏꜣꜥ": 5596,
      "ḏꜣn": 5597,
      "ḏꜣjw": 5598,
      "ḏꜣty": 5599,
      "ḏꜣhꜣ": 5600,
      "ḏꜣfj": 5601,
      "hꜣf": 5602,
      "hꜣpl": 5603,
      "hꜣtyw": 5604,
      "ḫprš": 5605,
      "bjf": 5606,
      "bjdj": 5607,
      "bjm𓊇": 5608,
      "ḏrf": 5609,
      "rḏt": 5610,
      "rḏꞽ": 5611,
      "nwꜥ": 5612,
      "nwnw": 5613,
      "tntm": 5614,
      "tndu": 5615,
      "tnṯꜣ": 5616,
      "šnwtı͗": 5617,
      "srp": 5618,
      "srḥ": 5619,
      "nḏꜥ": 5620,
      "nḏj": 5621,
      "nḏrj": 5622,
      "nḏḥy": 5623,
      "mdḥw": 5624,
      "mddw": 5625,
      "mdꜣm": 5626,
      "mwj": 5627,
      "pꜣy≡j": 5628,
      "pttj": 5629,
      "ṯnḥ": 5630,
      "ṯnu̯": 5631,
      "ṯnṯꜣ": 5632,
      "nḥj": 5633,
      "nḥꞽ": 5634,
      "nḥsi̯": 5635,
      "nḥti̯": 5636,
      "rḫjw": 5637,
      "tʾy": 5638,
      "tʾnn": 5639,
      "sḥnn": 5640,
      "ꜣbu̯": 5641,
      "ytw": 5642,
      "ṯꜣrj": 5643,
      "sbd": 5644,
      "sbb": 5645,
      "sbw": 5646,
      "sbꞽ": 5647,
      "sbtt": 5648,
      "sbdš": 5649,
      "mtt": 5650,
      "mt≡f": 5651,
      "mtjw": 5652,
      "mttj": 5653,
      "mtmt": 5654,
      "hrj": 5655,
      "jtnw": 5656,
      "ẖnt": 5657,
      "ẖnnj": 5658,
      "wpd": 5659,
      "ḥḏj": 5660,
      "ḥḏnw": 5661,
      "ḥḏnḏ": 5662,
      "ḥḏḏw": 5663,
      "jsi̯": 5664,
      "jswt": 5665,
      "jswꜣ": 5666,
      "jsı͗": 5667,
      "jssj": 5668,
      "nḫp": 5669,
      "nḫꞽ": 5670,
      "nḫwj": 5671,
      "spš": 5672,
      "spllm": 5673,
      "jni̯t": 5674,
      "jni̯≡s": 5675,
      "mri̯≡": 5676,
      "hrw≡f": 5677,
      "wꜥbw": 5678,
      "gr𓊇": 5679,
      "tmḥ": 5680,
      "tmš": 5681,
      "tmwt": 5682,
      "ḫfd": 5683,
      "pst": 5684,
      "psst": 5685,
      "##wꜣb": 5686,
      "ḥsꜣw": 5687,
      "bndw": 5688,
      "ḏwꞽ": 5689,
      "zpw": 5690,
      "zpj": 5691,
      "zp≡f": 5692,
      "nmmj": 5693,
      "ꞽms": 5694,
      "ꞽmy": 5695,
      "ꞽmš": 5696,
      "ꞽrw": 5697,
      "ntwt": 5698,
      "ntbw": 5699,
      "ntrw": 5700,
      "ntṯn": 5701,
      "gsm": 5702,
      "gsy": 5703,
      "gstꞽ": 5704,
      "ꜥšjw": 5705,
      "sḥḏn": 5706,
      "šsy": 5707,
      "šsšs": 5708,
      "wꜣḏj": 5709,
      "wꜣḏ≡s": 5710,
      "jwi̯t": 5711,
      "rwn": 5712,
      "rwh": 5713,
      "rwrw": 5714,
      "pḥn": 5715,
      "špw": 5716,
      "špj": 5717,
      "špš": 5718,
      "šws": 5719,
      "šw𓊇": 5720,
      "šwꞽ": 5721,
      "šwwj": 5722,
      "jppj": 5723,
      "jpḥw": 5724,
      "nḫt≡f": 5725,
      "rmnj": 5726,
      "ꜣbdj": 5727,
      "qꜣn": 5728,
      "šꜣmw": 5729,
      "šꜣwꜣb": 5730,
      "ꜥnḥ": 5731,
      "ꜥnj": 5732,
      "ꜥnk": 5733,
      "ꜥnṯ": 5734,
      "ꜥntw": 5735,
      "ꜥnbw": 5736,
      "ꜥnbr": 5737,
      "ꜥnkk": 5738,
      "sꜥꜥ": 5739,
      "sꜥḫ": 5740,
      "sꜥbꜣ": 5741,
      "ḏḥty": 5742,
      "ḏḥꜥꜥ": 5743,
      "jṯy": 5744,
      "jṯmw": 5745,
      "ꜥqj": 5746,
      "ꜥqi": 5747,
      "ꜥqwj": 5748,
      "##jw𓊇": 5749,
      "ẖnw≡f": 5750,
      "sṯw": 5751,
      "sṯf": 5752,
      "sṯnn": 5753,
      "ḫmꜣꜣ": 5754,
      "jꜥnw": 5755,
      "jꜥnj": 5756,
      "jꜥḏm": 5757,
      "rst": 5758,
      "rsn": 5759,
      "rsi̯": 5760,
      "rs≡f": 5761,
      "rsu̯": 5762,
      "rssy": 5763,
      "ḥzzj": 5764,
      "dmw": 5765,
      "psḏj": 5766,
      "psḏꞽ": 5767,
      "qdr": 5768,
      "qdfy": 5769,
      "qdqd": 5770,
      "sšm≡f": 5771,
      "ḫsꜣy": 5772,
      "jḫy": 5773,
      "jḫw": 5774,
      "jḫssf": 5775,
      "sjq": 5776,
      "sjnw": 5777,
      "sjzy": 5778,
      "qrt": 5779,
      "qrq": 5780,
      "qrꞽ": 5781,
      "qnt": 5782,
      "šꜥḏ": 5783,
      "jḥt": 5784,
      "jḥm": 5785,
      "jḥdj": 5786,
      "nꜣy≡k": 5787,
      "šdt": 5788,
      "šdw": 5789,
      "šd≡f": 5790,
      "jdd": 5791,
      "jdḫ": 5792,
      "jzꜣ": 5793,
      "ꞽnw": 5794,
      "##mꜣ≡j": 5795,
      "skrj": 5796,
      "skty": 5797,
      "skmm": 5798,
      "ḫrpw": 5799,
      "mꜥb": 5800,
      "mꜥḫ": 5801,
      "mꜥrj": 5802,
      "mꜥšr": 5803,
      "mꜥ≡n": 5804,
      "mꜥds": 5805,
      "mꜥšꜥ": 5806,
      "ꜥrqꜣ": 5807,
      "ꜥršn": 5808,
      "hꜣbw": 5809,
      "hꜣbu̯": 5810,
      "mšꜥq": 5811,
      "103": 5812,
      "104": 5813,
      "nʾw": 5814,
      "kmt": 5815,
      "kmj": 5816,
      "kmkm": 5817,
      "ḫpj": 5818,
      "ḫpnn": 5819,
      "mnwr": 5820,
      "ḫꜣst": 5821,
      "šzpp": 5822,
      "sdnm": 5823,
      "sdšr": 5824,
      "sdni̯": 5825,
      "smꜣꜣ": 5826,
      "smꜣjr": 5827,
      "snb≡s": 5828,
      "stpp": 5829,
      "stpw": 5830,
      "ḫsff": 5831,
      "nmtt": 5832,
      "nhn": 5833,
      "nhq": 5834,
      "nhꞽ": 5835,
      "nhzj": 5836,
      "wꜣḥj": 5837,
      "swti̯": 5838,
      "pẖrw": 5839,
      "ẖnw": 5840,
      "spri̯": 5841,
      "sfw": 5842,
      "sfkk": 5843,
      "jtj≡": 5844,
      "jtjtj": 5845,
      "nḏmm": 5846,
      "nḏmj": 5847,
      "gbt": 5848,
      "ꜥḏꜥḏ": 5849,
      "smsr": 5850,
      "ꞽwdn": 5851,
      "ꞽwrr": 5852,
      "ꞽwdw": 5853,
      "ptr≡j": 5854,
      "ꜥbḫn": 5855,
      "ṯzy": 5856,
      "ṯzꞽ": 5857,
      "dptw": 5858,
      "dpwy": 5859,
      "ḥḥw": 5860,
      "ḥḥꞽ": 5861,
      "ḥḥı͗": 5862,
      "gꜣp": 5863,
      "gꜣsꜣ": 5864,
      "ẖꜣs": 5865,
      "ẖꜣj": 5866,
      "ẖꜣẖꜣ": 5867,
      "ḏbt": 5868,
      "mḏt": 5869,
      "mḏwj": 5870,
      "jrr≡f": 5871,
      "ꜣwsw": 5872,
      "pꜥt": 5873,
      "wḥmy": 5874,
      "mrwḥ": 5875,
      "dbnbn": 5876,
      "smnn": 5877,
      "1002": 5878,
      "swꜣꜣ": 5879,
      "swꜣwꜣ": 5880,
      "swꜣww": 5881,
      "dꜣs": 5882,
      "myt": 5883,
      "ḥbsj": 5884,
      "ywpl": 5885,
      "ḫwi": 5886,
      "mkk": 5887,
      "mkrjw": 5888,
      "##nnꜣ": 5889,
      "wypl": 5890,
      "ꞽbhꜣ": 5891,
      "njḏw": 5892,
      "tysb": 5893,
      "203": 5894,
      "##ḫnt": 5895,
      "qmꜣw": 5896,
      "ssḥ": 5897,
      "ssbj": 5898,
      "ssꜣꜣ": 5899,
      "jšt": 5900,
      "jšp": 5901,
      "jštꜣ": 5902,
      "ꞽtt": 5903,
      "ꞽtm": 5904,
      "mryt": 5905,
      "mryn": 5906,
      "160": 5907,
      "ḥwi̯≡f": 5908,
      "znq": 5909,
      "znꜥꜥ": 5910,
      "trr": 5911,
      "trw": 5912,
      "wḏꜥꜥ": 5913,
      "sṯꜣw": 5914,
      "spdḏ": 5915,
      "ddy": 5916,
      "ddꞽ": 5917,
      "pzf": 5918,
      "ḫnmt": 5919,
      "##ꜥḥꜥ": 5920,
      "##ꜥḥr": 5921,
      "##nḏd": 5922,
      "nꜥjw": 5923,
      "ḥpꜥ": 5924,
      "ḥpn": 5925,
      "ḥptj": 5926,
      "zmꜣy": 5927,
      "jrm𓊇": 5928,
      "jmjm": 5929,
      "šfꜥ": 5930,
      "šfn": 5931,
      "šfš": 5932,
      "šfnw": 5933,
      "nšp": 5934,
      "nšy": 5935,
      "nšj": 5936,
      "nšjw": 5937,
      "nšnm": 5938,
      "mnts": 5939,
      "mntṯ": 5940,
      "mnttn": 5941,
      "mntst": 5942,
      "ꜥmd": 5943,
      "ꜥmw": 5944,
      "ꜥmj": 5945,
      "ḥnky": 5946,
      "ḥnkwt": 5947,
      "ḥknj": 5948,
      "šbtj": 5949,
      "šbšb": 5950,
      "pjp": 5951,
      "ꜣḥꜣ": 5952,
      "jmms": 5953,
      "dbḥt": 5954,
      "ṯst": 5955,
      "ṯsjs": 5956,
      "ṯsjꜣ": 5957,
      "hꜣyt": 5958,
      "jnnt": 5959,
      "hnq": 5960,
      "ꞽꜣꞽ": 5961,
      "ꞽꜣṯ": 5962,
      "ꞽꜣkb": 5963,
      "ꞽꜣkm": 5964,
      "thb": 5965,
      "šry": 5966,
      "šr𓊇": 5967,
      "jnby": 5968,
      "bḥw": 5969,
      "ꜥḫjw": 5970,
      "zwnw": 5971,
      "snfi̯": 5972,
      "ḫꜣwꞽ": 5973,
      "nry": 5974,
      "ṯḥnḥn": 5975,
      "mtrḥ": 5976,
      "mtrw": 5977,
      "mtrwy": 5978,
      "msḏm": 5979,
      "ḫbt": 5980,
      "ḫbr": 5981,
      "ršp": 5982,
      "ršy": 5983,
      "ršš": 5984,
      "ršwj": 5985,
      "mzı͗": 5986,
      "špssj": 5987,
      "jpwj": 5988,
      "rkjw": 5989,
      "mꞽw": 5990,
      "ḥmꜣg": 5991,
      "ḥmꜣmw": 5992,
      "srwjj": 5993,
      "ꞽsd": 5994,
      "sgn": 5995,
      "sgrj": 5996,
      "sgmḥ": 5997,
      "ꜥgnj": 5998,
      "ꜥgrtb": 5999,
      "mmy": 6000,
      "fdqꜣ": 6001,
      "ḥꜥꜥw": 6002,
      "ḫnmsw": 6003,
      "sjꜣrr": 6004,
      "ḫnfwt": 6005,
      "ꜣmy": 6006,
      "ꜥdj": 6007,
      "sbḫbḫ": 6008,
      "ḫdy": 6009,
      "kkt": 6010,
      "kkj": 6011,
      "kki̯": 6012,
      "qmq": 6013,
      "nkjw": 6014,
      "qbꜥ": 6015,
      "qby": 6016,
      "qbsw": 6017,
      "sꜣḫw": 6018,
      "hꜣw≡f": 6019,
      "stjš": 6020,
      "stjmw": 6021,
      "fꜣg": 6022,
      "pꜣwꜥ": 6023,
      "rrʾwj": 6024,
      "ꜥjn": 6025,
      "ꜥjꜥj": 6026,
      "wbt": 6027,
      "wbg": 6028,
      "wbḏ": 6029,
      "sꜣww": 6030,
      "dbb": 6031,
      "dbjw": 6032,
      "nẖẖ": 6033,
      "prrṯ": 6034,
      "ꜥqꜣꜣ": 6035,
      "bꞽtꞽ": 6036,
      "npn": 6037,
      "npi̯": 6038,
      "skꜣw": 6039,
      "sbjn": 6040,
      "ꜥḏdjw": 6041,
      "125": 6042,
      "126": 6043,
      "ẖsr": 6044,
      "ẖsꜣw": 6045,
      "ẖsꜣy": 6046,
      "kft": 6047,
      "qꜥḥw": 6048,
      "dydy": 6049,
      "bštꜣ": 6050,
      "mẖtw": 6051,
      "dgꜣm": 6052,
      "dgꜣj": 6053,
      "dgꜣsꜣ": 6054,
      "jwry": 6055,
      "ḏꜥmw": 6056,
      "nsrt": 6057,
      "ꜣṯt": 6058,
      "ꜣṯpw": 6059,
      "zwnu̯": 6060,
      "rfr": 6061,
      "ḥqrr": 6062,
      "ḥqn": 6063,
      "mi̯≡n": 6064,
      "ḏfi̯": 6065,
      "šnḏw": 6066,
      "zwrꞽ": 6067,
      "ꜥḏꜣj": 6068,
      "sndt": 6069,
      "knmm": 6070,
      "hh≡f": 6071,
      "bꜣq≡f": 6072,
      "bꜣbꜣw": 6073,
      "bꜣbꜣwt": 6074,
      "jsṯwy": 6075,
      "ṯbhn": 6076,
      "snwr": 6077,
      "snw≡j": 6078,
      "jꜣḫw": 6079,
      "snni̯": 6080,
      "snntj": 6081,
      "sḏdm": 6082,
      "nhꜣy": 6083,
      "nhꜣj": 6084,
      "thꜣj": 6085,
      "ḥꜣmw": 6086,
      "ꞽzf": 6087,
      "npꜣwt": 6088,
      "tw≡tn": 6089,
      "krʾ": 6090,
      "krkr": 6091,
      "krḫn": 6092,
      "jnḥꜣs": 6093,
      "ꜥbšw": 6094,
      "sꞽwi̯": 6095,
      "ꜣqdqd": 6096,
      "knr": 6097,
      "knꜥn": 6098,
      "sšꜣj": 6099,
      "bwpwy": 6100,
      "ꞽḥꞽ": 6101,
      "ꜥrry": 6102,
      "sẖꜣw": 6103,
      "mḥn≡f": 6104,
      "kfꜣy": 6105,
      "ṯmj": 6106,
      "ṯmzw": 6107,
      "ṯmrw": 6108,
      "ṯmpꜣw": 6109,
      "ꜥꜥm": 6110,
      "ḥꜥpꞽ": 6111,
      "jḫmꜥ": 6112,
      "dḥt": 6113,
      "dḥty": 6114,
      "dḥꜣy": 6115,
      "jks": 6116,
      "jkk": 6117,
      "jki̯": 6118,
      "jkzj": 6119,
      "bꜣgsw": 6120,
      "ꜥbꜣbꜣ": 6121,
      "ꞽpf": 6122,
      "ꞽptw": 6123,
      "jwdw": 6124,
      "ḏꜣmꜥ": 6125,
      "ḏꜣmw": 6126,
      "hms": 6127,
      "ḥꜣwy": 6128,
      "mnḏr": 6129,
      "wnšjw": 6130,
      "ḥnnks": 6131,
      "1140": 6132,
      "ṯpnp": 6133,
      "ꜣꜥꜥb": 6134,
      "snjt": 6135,
      "snjhꜣ": 6136,
      "ngsgs": 6137,
      "ngmgm": 6138,
      "ztj𓊇": 6139,
      "ꞽdm": 6140,
      "ꞽdꞽ": 6141,
      "shd": 6142,
      "ꜣdm": 6143,
      "ṯnnt": 6144,
      "155": 6145,
      "1500": 6146,
      "ḥjm": 6147,
      "jdnpl": 6148,
      "wḏḥj": 6149,
      "ꜥmꜣmw": 6150,
      "dgw": 6151,
      "dgj": 6152,
      "dgš": 6153,
      "dgdg": 6154,
      "i͗d": 6155,
      "i͗m": 6156,
      "i͗z": 6157,
      "i͗q": 6158,
      "i͗ḫj": 6159,
      "i͗mꜣ≡j": 6160,
      "kꜣrty": 6161,
      "nwḥḥ": 6162,
      "wmnj": 6163,
      "mndf": 6164,
      "mndyw": 6165,
      "sgrg": 6166,
      "fꞽw": 6167,
      "hdd": 6168,
      "kšꞽ": 6169,
      "kškš": 6170,
      "zmi̯": 6171,
      "mꜣtjr": 6172,
      "šmꜣy": 6173,
      "dwdy": 6174,
      "hjp": 6175,
      "hj≡s": 6176,
      "mhwt": 6177,
      "zḫnn": 6178,
      "šꜣšꜣꜥ": 6179,
      "šꜣšꜣy": 6180,
      "jqm": 6181,
      "jqḥ": 6182,
      "ḥwtj": 6183,
      "mḥi̯≡f": 6184,
      "ssmt": 6185,
      "ꜣgbj": 6186,
      "ḏꜥrʾ": 6187,
      "sqꜣy": 6188,
      "ztjw": 6189,
      "byꜣ": 6190,
      "tby": 6191,
      "tbꞽ": 6192,
      "tbhꜣ": 6193,
      "ꜣzb": 6194,
      "twnpj": 6195,
      "swrḥ": 6196,
      "swrꞽ": 6197,
      "ntw≡w": 6198,
      "štb": 6199,
      "tkm": 6200,
      "tktk": 6201,
      "hbnꞽ": 6202,
      "ẖꜥḳw": 6203,
      "wnḏj": 6204,
      "1400": 6205,
      "pḫpḫ": 6206,
      "whꜣs": 6207,
      "whꜣsj": 6208,
      "jhꜣm": 6209,
      "wꜥfw": 6210,
      "ndm": 6211,
      "ndr": 6212,
      "ndri̯": 6213,
      "ndsds": 6214,
      "sdbj": 6215,
      "sdbꞽ": 6216,
      "sfnꜣ": 6217,
      "szbi̯": 6218,
      "ḥzjj": 6219,
      "skmyt": 6220,
      "fqꜣw": 6221,
      "40000": 6222,
      "jmḥj": 6223,
      "sꜣry": 6224,
      "dwꜣww": 6225,
      "jfdi̯": 6226,
      "šwꜣw": 6227,
      "hy≡s": 6228,
      "ꜥẖy": 6229,
      "ꜥẖnw": 6230,
      "mjwḥ": 6231,
      "syf": 6232,
      "syfy": 6233,
      "dmꜣꜥ": 6234,
      "brbr": 6235,
      "kbb": 6236,
      "šsmt": 6237,
      "nṯs": 6238,
      "nṯṯ": 6239,
      "ḥfy": 6240,
      "ḥfnn": 6241,
      "ḥfrn": 6242,
      "2100": 6243,
      "220": 6244,
      "bqbq": 6245,
      "ꜣr≡f": 6246,
      "ꞽšs": 6247,
      "ꞽšꞽ": 6248,
      "ḫnjt": 6249,
      "ṯjṯ": 6250,
      "mꜣḥj": 6251,
      "180": 6252,
      "qrjꜥw": 6253,
      "shꜣd": 6254,
      "rḫss": 6255,
      "wḫrt": 6256,
      "šfdy": 6257,
      "krjw≡sn": 6258,
      "mḫnty": 6259,
      "mḫnti̯": 6260,
      "sgꜣp": 6261,
      "ḫnn≡s": 6262,
      "bꜣbꞽ": 6263,
      "dqꜥ": 6264,
      "dqq": 6265,
      "jknw": 6266,
      "ḫmꜥi̯": 6267,
      "ꜣꜣj": 6268,
      "ḫꜣbb": 6269,
      "btbt": 6270,
      "wgꜣj": 6271,
      "ynꜥm": 6272,
      "nbḏbḏ": 6273,
      "mnqw": 6274,
      "sḥꜣb": 6275,
      "sḥꜣbi̯": 6276,
      "msḏḏ≡f": 6277,
      "bgꜣs": 6278,
      "bgꜣw": 6279,
      "qwqw": 6280,
      "ꜣšb": 6281,
      "ḥnytj": 6282,
      "260": 6283,
      "gwš": 6284,
      "gwsꜣ": 6285,
      "zmnnw": 6286,
      "ṯꜣry": 6287,
      "nšnš": 6288,
      "1900": 6289,
      "hwṱ": 6290,
      "hwhy": 6291,
      "hwhw": 6292,
      "ꜣꜥfj": 6293,
      "ꜥpš": 6294,
      "msnšd": 6295,
      "rwjꜣj": 6296,
      "zḫzḫ": 6297,
      "ḏmj": 6298,
      "nwtwt": 6299,
      "nꜥyꜣ": 6300,
      "ḥdḏ": 6301,
      "ḥtꜣw": 6302,
      "ṯmꜣm": 6303,
      "sḫwd": 6304,
      "sḫwz": 6305,
      "nhdh": 6306,
      "dḥꜣj": 6307,
      "tjmḥw": 6308,
      "ꜣhꜣm": 6309,
      "mhꜣj": 6310,
      "ḥkk": 6311,
      "jsyw": 6312,
      "mṯꜣm": 6313,
      "sjsj": 6314,
      "wft": 6315,
      "ꜣjrr≡f": 6316,
      "ꜣmꜥw": 6317,
      "370": 6318,
      "kꜣmy": 6319,
      "ḥꜣgg": 6320,
      "ꜥẖnwtj": 6321,
      "330": 6322,
      "ꞽntsn": 6323,
      "ı͗pl": 6324,
      "snhp": 6325,
      "ꞽḫmꜥ": 6326,
      "ḳḥḳḥ": 6327,
      "nfrydj": 6328,
      "srmi̯": 6329,
      "ḫfꜣꜣ": 6330,
      "gꜣḥsj": 6331,
      "ḥwrꜥw": 6332,
      "ẖdr": 6333,
      "ẖdẖd": 6334,
      "swjb": 6335,
      "mnfr": 6336,
      "hꜣrp": 6337,
      "hꜣrpwy": 6338,
      "srḏy": 6339,
      "ḫmḫmw": 6340,
      "ẖttj": 6341,
      "ssḫm": 6342,
      "mjnꜣj": 6343,
      "mṯṯ": 6344,
      "mṯpn": 6345,
      "ndbdb": 6346,
      "wzf": 6347,
      "wzṯ": 6348,
      "ḳḏr": 6349,
      "ꞽṯṯ": 6350,
      "tjnr": 6351,
      "tjnrw": 6352,
      "nfꜥj": 6353,
      "wstnj": 6354,
      "nswyt": 6355,
      "nswy≡f": 6356,
      "sbjꜣt": 6357,
      "mby": 6358,
      "rṯm": 6359,
      "rṯnw": 6360,
      "ḫzꜣ": 6361,
      "ꜣft": 6362,
      "jwdnb": 6363,
      "swhi̯": 6364,
      "ḥmꜣmy": 6365,
      "fꜥy": 6366,
      "rhj": 6367,
      "rhꞽ": 6368,
      "##hwꞽ": 6369,
      "jnmm≡s": 6370,
      "sšwꜣš": 6371,
      "mḥꜣ≡f": 6372,
      "nḏdnḏd": 6373,
      "snḥmy": 6374,
      "krj≡f": 6375,
      "sḳd": 6376,
      "sꜣdd": 6377,
      "mꜥmꜥ": 6378,
      "ḫpḫp": 6379,
      "bẖs": 6380,
      "mgw": 6381,
      "mgg": 6382,
      "rjwm": 6383,
      "sḳꜣḥ": 6384,
      "jwpṯ": 6385,
      "ḥngg": 6386,
      "ꜣbꜣb": 6387,
      "ꜥšgꜣjw": 6388,
      "qꜣmy": 6389,
      "ḥzꞽꞽ": 6390,
      "mꜥnd": 6391,
      "nšfšf": 6392,
      "4500": 6393,
      "gf≡j": 6394,
      "hsh": 6395,
      "kꜥf": 6396,
      "qfq": 6397,
      "škrꜥ": 6398,
      "ḏnwd": 6399,
      "##sy𓊇": 6400,
      "ꜥꜥfi̯": 6401,
      "wgꜣgg": 6402,
      "545": 6403,
      "mqj": 6404,
      "ḥꞽp": 6405,
      "ꜣẖꜥ": 6406,
      "ꜥꜣgꜣs": 6407,
      "bꜣgꜣy": 6408,
      "sḥjḥt": 6409,
      "jpꜣṯj": 6410,
      "dmm≡s": 6411,
      "kmwꞽ": 6412,
      "gꜣbgꜣb": 6413,
      "htpw": 6414,
      "maa": 6415,
      "tkrbr": 6416,
      "ḫšḫš": 6417,
      "ṯjrr": 6418,
      "ẖṯb": 6419,
      "jrksnd": 6420,
      "nfrwys": 6421,
      "sꜣhh": 6422,
      "##wꜣj𓊇": 6423,
      "ꜥḏjꜥḏj": 6424,
      "njnkn": 6425,
      "i͗npw": 6426,
      "ḥdqq": 6427,
      "dḏhḏw": 6428,
      "gott": 6429,
      "kḥss": 6430,
      "nẖrẖr": 6431,
      "rqrq": 6432,
      "ḳbꜥ": 6433,
      "ḳbḥw": 6434,
      "ꜥtrf": 6435,
      "𓊆jwꜣj𓊇": 6436,
      "𓊆jꜣsy𓊇": 6437,
      "snḏꜣḏꜣ": 6438,
      "ḥꜣswsn": 6439,
      "smšrw": 6440,
      "smtmt": 6441,
      "sthb𓊇": 6442,
      "mshrt": 6443,
      "ḥḏnḏn": 6444,
      "ꞽwdnb": 6445,
      "ṯpnpn": 6446,
      "jrksndrs": 6447
    }
  }
}