[PAD]
[UNK]
[CLS]
[SEP]
[MASK]
!
'
(
)
+
,
-
.
/
0
1
2
3
4
5
6
7
8
9
:
;
<
=
>
?
[
]
_
a
b
c
d
e
f
g
h
i
j
k
l
m
n
o
p
q
r
s
t
u
v
w
x
y
z
{
}
~
ä
ð
ø
ü
ı
š
ʾ
̯
̱
͗
ḏ
ḥ
ḫ
ḳ
ṯ
ṱ
ẖ
–
…
⁝
≡
〈
〉
⸢
⸣
⸮
ꜣ
ꜥ
ꞽ
𓊆
𓊇
𓍹
𓍺
##s
##d
##ꜣ
##t
##b
##ꜥ
##m
##p
##r
##y
##ḥ
##z
##w
##n
##j
##1
##0
##š
##𓊇
##u
##̯
##≡
##f
##q
##h
##ẖ
##ḫ
##k
##ꞽ
##g
##l
##i
##5
##ḏ
##ı
##͗
##ʾ
##7
##ṱ
##ṯ
##ḳ
##ü
##c
##e
##8
##2
##a
##𓍺
##3
##4
##x
##̱
##6
##o
##9
##ä
##i̯
ḥr
pl
nb
jr
jm
jw
tj
##ṯr
sn
nṯr
pꜣ
rꜥ
ḫr
pr
jn
tꜣ
nf
##nḫ
nfr
kꜣ
##wt
rꜥw
ns
rʾ
ḥm
mr
mꜣ
ꜥꜣ
ḏd
ꜥnḫ
tw
wn
jri̯
sw
##tp
jt
zꜣ
nswt
wr
ḥꜣ
wꜥ
ḥtp
ws
ḏi̯
rn
jmn
mn
ḫꜣ
ḫn
wꜣ
pw
ẖr
tp
mꜣꜥ
sm
du
bꜣ
wt
jb
ḥn
ꜣḫ
nn
sḫ
mj
##pr
st
wj
ḫrw
ḥw
ms
wḏ
ꜥḥ
ḫt
##≡f
nꜣ
pn
jꜣ
šm
##jr
##ꜣḫ
##py
tt
ḫnt
ppy
wsjr
sš
sꜣ
mḥ
ḏꜣ
##ẖꜣ
hꜣ
ḫpr
sḏ
bj
zẖꜣ
jmꜣḫ
ḏr
rḏ
nw
tn
šn
sr
nḏ
md
ꜥḥꜥ
mw
rḏi̯
pri̯
pꜣy
pt
ṯn
ḥnꜥ
nḥ
jy
rḫ
tʾ
sḥ
ꜣb
yt
ṯꜣ
sb
mt
hr
jtn
ẖn
wp
ḥḏ
rd
js
nḫ
##wi̯
sp
bw
jni̯
mri̯
wḏꜣ
hrw
wꜥb
##bn
rnp
ḥꜥ
gr
tm
ḫf
ps
##wꜣ
ḥs
bn
##rj
##ḏꜣ
mdw
ḏw
zp
jnk
smr
ḏs
ḫꜥ
ṯw
nm
ḫft
ꞽm
ꞽr
wnn
msi̯
mꜣꜣ
gm
ptḥ
kw
nt
gs
##00
##tꜣ
##qꜣ
mtw
ꜥš
sḫm
sḏm
sḥḏ
šs
wꜣḏ
jwi̯
rw
pḥ
šp
šw
jp
wsr
nḫt
rm
dwꜣ
ꜣbd
##kꜣ
qꜣ
šꜣ
ꜥn
sꜥ
ḏḥ
##zw
bꜣḥ
nḥḥ
jṯ
ḫtm
šps
ꜥq
##jw
ẖnw
wḥ
jnp
jwn
sṯ
ḫm
jꜥ
wd
rs
ḥz
nzw
##bꜣ
bꜣk
dm
##js
ky
psḏ
qd
jmi̯
ḏsr
sšm
ḥqꜣ
ḫs
jḫ
šmꜥ
mš
sj
qr
nsw
ḥt
qn
nbw
šꜥ
jḥ
##pd
##bḥ
##si̯
nꜣy
šd
wnm
dj
jd
šz
jz
tꜣy
ꞽn
tꞽ
##mꜣ
mnḫ
ꜣpd
sk
ḫrp
mꜥ
ꜥr
hꜣb
gmi̯
ḥꜣb
mšꜥ
sḫr
10
ḥb
dr
nʾ
km
ḫp
##ty
##nm
mnw
ꜣs
##ẖr
ḫꜣs
šzp
##tj
zꜣb
mrr
ḏḥw
ttj
sd
smꜣ
di̯
wbn
snb
stp
##qr
ꜥḥꜣ
sbꜣ
jꜣb
ḫsf
šms
ḫꜥi̯
nmt
nh
wꜣḥ
swt
qrs
pẖr
##u̯
ẖ
spr
sf
jtj
nḏm
ꜥšꜣ
gb
šmi̯
##kr
ḥmsi̯
sštꜣ
jrp
ꜥḏ
wnjs
sms
ḫwi̯
ꞽw
ptr
ꜥb
ṯz
wpi̯
wꜣs
dp
ḥnq
šrj
snḏ
jṯi̯
ḥḥ
mḏꜣ
hꜣi̯
gꜣ
ẖꜣ
##šr
##fꜣ
snṯr
ḏb
rdj
##kn
qbḥ
mḏ
≡j
rdi̯
grḥ
rmṯ
sbk
ḏḏ
jrj
wḫ
wjꜣ
##≡j
ṯꜣw
wš
##ꜣi̯
mrḥ
jrr
ꜣw
##ꞽs
pꜥ
##nw
##≡s
wḥm
mrw
pf
stš
nb≡f
ꜣbḏ
ẖnm
ḥsb
qs
wnꞽs
dbn
smn
jꜣw
wsḫ
šdi̯
##nj
64
100
t≡f
zḥ
swꜣ
dꜣ
my
ḥbs
yw
ḫw
ḏbꜥ
mk
i̯
ww
nty
##nn
grg
gbb
wy
ḏꜣi̯
štꜣ
ꞽb
di
pḏ
nḥm
pwy
sḏr
ḏꜣḏꜣ
##gꜣ
kꜣkꜣ
nj
ꞽri̯
ty
20
jry
tjw
sẖ
twt
##ḫn
dmḏ
##wn
sšr
sꜥḥ
kwj
fj
bd
rwḏ
kꜣkꜣj
ḏꜥ
ꜥpr
ḥmw
qmꜣ
ss
zꜣ≡f
##mn
jš
##hꜣ
šns
stẖ
##ḥn
jqr
ꞽt
ḫꜣꜥ
mry
16
ḫpš
ḥwi̯
šnw
jj
zn
mnj
tr
ds
wpw
jrʾ
wḏꜥ
jyi̯
sꜥnḫ
sq
ḥkꜣ
≡f
jṯꜣ
sṯꜣ
bjꜣ
fꜣi̯
##tw
spd
wꞽ
šnꜥ
wḥꜥ
dd
pz
ḫnm
jwꜥ
##ꜥḥ
swḏꜣ
##nḏ
nꜥ
ḥp
nbs
ḥtr
ṯzi̯
zmꜣ
jrm
ẖnm
jwf
sḫp
wꜣg
ḏḥwt
njw
jmj
šf
ḥꜥi̯
ẖkr
jtm
nš
šsp
zš
šnj
mnt
dmj
ꞽmꜣḫ
sḥtp
wnw
##ri̯
##fn
##tr
ꜥm
ḏbꜣ
wbꜣ
ꜥw
ḫns
nḥb
ẖrd
ḥnk
ḥkn
spꜣ
ṯr
qꜣi̯
jti̯
dšr
šb
rn≡f
šwi̯
32
pj
ꜣḥ
jmm
dbḥ
mʾ
jꜣr
zꜣw
ḥnw
mʾw
ṯs
ṯy
sḫꜣ
jꜣwi̯
mdwi̯
zb
##pj
dn
jwꜣ
hꜣy
smj
##ḫꜣ
jnn
bnj
hn
zj
wdn
mnṯ
ꞽꜣ
1000
th
šr
ḳd
jnb
wꜥr
bḥ
##pw
zḫn
ꜥḫ
##tt
bnr
pzn
##ꞽr
nḫn
ḏw≡f
wḫꜣ
jmy
rt
zw
msd
snf
ḫꜣw
ḏwj
wšb
nr
ṯḥn
jtr
twꜣ
##bw
wṯ
ḫpi̯
ḏj
rmn
mtr
wpl
##≡k
msḏ
bjt
sšmi̯
ḫb
snḏm
##zj
twy
pꜣj
smd
rš
ḥtm
mz
smꜣꜥ
ḥmt
wnḫ
šꜣꜥ
jšd
sḫpr
bjn
špss
nḫb
jpw
rk
##tn
mꞽ
tpl
ḥry
ntf
ḥmꜣ
srw
wdi̯
šsꜣ
sꜣḥ
ẖꜣr
ḏfꜣ
ḥbn
ꞽs
rtḥ
sg
ꞽy
nḏri̯
ꞽmn
ḫwi̯≡f
ṯwt
ꜥg
##ı͗
wtj
mm
##ꜥꜥ
fd
zkr
ꜣšr
ḥmty
nḏs
ḥꜥꜥ
ꜣbḏw
ḫnms
##pp
sjꜣ
ꜣy
##sn
ḏꜣr
ḫnf
šmj
ptrj
qꜣb
jnj
ḏḥwtj
ntk
sḫpi̯
jnr
wḏb
ꜣm
ꜥd
mꜣw
ꜥꜣpp
wrr
sbḫ
ḥṯ
ḥsi̯
sqd
ḫd
ḥꜣt
##pl
kk
wꜥḥ
sfḫ
wṯz
30
qm
nk
qb
mntk
ḥrw
mwt
##db
jst
bꜥḥ
sꜣḫ
mḥr
hꜣw
ḫnd
sḫt
šꜥd
stj
bjk
sjp
50
jꜣd
ṯꜣy
msḏr
fꜣ
ḥbnn
bs
fnḏ
ttꞽ
nms
pꜣw
ḥzi̯
rr
ꜥj
njs
ḥꜥpj
psd
tḫ
ꜥwꜣ
šni̯
wb
jrt
ḫꜣi̯
zbi̯
##tf
ṯꜣi̯
mrj
pš
jdb
##ḥw
ḥri̯
ꞽni̯
šš
jmꜣ
wrš
sꜣw
tw≡j
ẖrj
šmw
ꜥrf
sfṯ
ḫnsw
sḫn
db
hnw
ḥrj
nẖ
prr
sjn
kj
ꜥqꜣ
jwt
bꞽ
jh
ks
tꜣš
np
skꜣ
tꜣj
zꜣu̯
qsn
ḏn
ꜥꜣi̯
mjn
sḥn
sbj
ꜥḏd
mḏḥ
12
jrw
sḏꜣ
ẖs
ḥms
nḥs
jzzj
ski̯
msdm
wꜣi̯
##rw
sntr
jnt
twj
wrḏ
bḥd
ẖni̯
fn
ḫntj
ꜣbw
200
tkn
tfn
ꜣwi̯
##fd
wꜥi̯
tnw
ḫꜥi̯≡f
mki̯
kf
qꜥḥ
ḫru̯
ꞽnp
sꜥḥꜥ
dy
##tḫ
jꜥḥ
bš
trj
mẖ
pḫꜣ
ḥꜣty
wsꞽr
ḫftj
yꜣ
##wty
wrḥ
ḫnti̯
mḥw
wdḥ
nẖnm
##ꜥb
tjt
swrj
sti̯
ꜥrq
dgꜣ
ḫḫ
jwr
psi̯
sjr
bꜣs
jpj
wḫd
dnj
ypl
gmj
rmi̯
ḏꜥm
jji̯
bb
ft
rꜣ
nsr
ẖnn
ḫmt
ꜣṯ
##mm
mnḥ
srf
ḥḏi̯
rwj
ḥzz
zwn
kꜣp
jꜥb
rf
ẖdb
stḫ
jꜥi̯
ḥqr
##ḳꜣ
ḥmi̯
tw≡k
ḏrḏ
ḏrw
swḥ
##ꜣw
##hn
rkḥ
ḥq
jty
mnmn
wi̯
ṯḥ
smnḫ
wꜥt
sšd
rḫt
rsj
kꜣ≡j
sḏb
ḫfti̯
wꜣš
ṯnw
gmm
wdu
mi̯
ḏf
šnḏ
ḥsmn
zwr
ṯbw
ꜥḏꜣ
snd
swḏ
300
##dn
sšp
ḫsb
ṯrp
jꜣm
sṯi̯
gn
knm
ḥfꜣ
ḳn
ṯsi̯
##wj
msw
btꜣ
hh
ḥy
##šꜣ
rnn
smḥ
bꜣq
bꜣbꜣ
zẖꜣw
jsṯ
ṯb
ḫpp
srwḫ
ššj
mẖn
mꜣj
ꜥꜣm
ḫnr
ḥsꜣ
ꞽwi̯
##qn
snw
jꜣḫ
ꜥnḏ
dꜣb
pd
##ḥs
snn
snsn
ꜥꜣb
##tm
stw
sḏd
šnn
jdw
nhꜣ
##šm
##ṯn
##rjw
ḥts
qnj
60
mnš
nmḥ
qnb
pfy
dwn
sqr
thꜣ
kꜣ≡f
wni̯
ḥꜣm
nḥr
ꜣtp
ꜣtf
ꞽz
swn
ḥwꜣ
šꜣs
wdp
mꜥḥ
npꜣ
40
bꜥ
sꞽr
tw≡
qnqn
ẖr
swꜣḏ
ḥpt
kr
jnḥ
mꜣs
wrd
jmꜣḫw
hru̯
n≡j
mnjw
smtr
ḫmn
ꞽyi̯
fḫ
šbn
jmw
mjz
pnꜥ
psš
jpn
ꜥbš
nbj
tpy
ḏḥwty
sgnn
hp
sꞽ
ꜣq
##dj
ḥnmm
ꜥnt
jꜥr
ḥzmn
jzf
##du
##zi̯
snm
wꜥw
ṯꜣz
rnpi̯
thi̯
kn
##ḏw
sšꜣ
ḥsq
wḫꜣḫ
mꜣq
nnšm
sꜣb
bwpw
ꞽmi̯
nq
ꞽḥ
##fj
prj
ḥwn
sꜣq
sbjw
ꜥrr
nkt
sẖꜣ
ꜥwn
šmm
sṯj
jdꜣ
ḫtꜣ
mḥn
mtj
ḏꜥw
ṯry
kfꜣ
ṯm
ꜥꜥ
jt≡f
ḥꜥp
jḫm
dḥ
jk
pp
rp
ꜣi̯
bꜣg
stꜣ
msḥ
ḫmi̯
jḥy
ꜥbꜣ
ꞽp
jwd
wḏi̯
ḏꜣm
ḏrj
nḫḫ
pfj
znf
snꜥꜥ
swꜥb
hm
n≡f
ḥzw
##gb
ḥꜣw
mnḏ
tmm
qꜣr
ḫwj
ftk
ḥḳꜣ
ḫy
ṯt
jrf
wnš
ḥnn
ṯtj
##hm
wḥꜣ
mḏd
11
hb
jg
rḥ
tf
ḏnn
ṯp
ꜣꜥꜥ
##ṯi̯
snj
ḫfꜥ
wnmy
nhm
nꞽ
šwy
zni̯
ꜥḫm
snfr
mf
ng
ry
rj
jms
ḏdi̯
jtḥ
sdꜣ
nhp
nšm
ḫdi̯
mꜥḥꜥ
pꞽ
ztj
ꞽd
jbj
nḏnḏ
mri̯≡s
rwd
jnpw
gꜣb
ssn
knmw
gḥs
ꜥḳ
##ti̯
mss
ꜥntj
sqdi̯
sh
w≡f
ꜣd
mnꜥ
spḥ
gꜣu̯
qmy
##ꜥm
šnb
ṯnn
15
ḥj
ḥfn
##šf
pꜣq
jns
ḥꜣq
jbḥ
nwn
qdš
jdn
ꞽnk
ꞽwn
mḫꜣ
tdu
ꜥf
##sꜣ
##ḫt
jnm
wꜥn
wḏḥ
rḏw
nḏr
ꜥmꜣ
ḥꜣp
šrjw
sst
šfšf
mnṯw
pšn
ṯpḥ
dg
i͗
nkn
pl≡f
kꜣr
nwḥ
sḥtm
ꞽrr
gmḥ
ntr
qmḥ
ny
wm
mnd
mjtt
šsr
šꜥy
smsw
wbd
jrṯ
ḫsr
ꜥrḳ
sft
mḏꜣy
sgr
fꞽ
tkꜣ
jstw
swtḫ
ḏnḥ
hd
kš
rwi̯
šnd
srq
ẖnj
jṯꜣy
dns
jgr
zm
ꜥtḫ
##ms
mꜣn
zꜣꜣ
ḫnz
ḫti̯
ṯꜣty
špsy
smꜣm
swtj
jtj≡f
##≡sn
bdn
sqb
smḥy
13
py
ꞽṯi̯
##bs
##ꜥr
jwtn
sni̯
mꜣt
ḥꜣ≡f
nni̯
šmꜣ
sbḥ
jsk
nmj
šj
ḳr
sꜣḏ
rmw
qꜣs
bdš
dw
hj
mh
zḫ
ṯnf
šꜣšꜣ
jdm
500
jq
nz
zzj
ḥwt
ḫj
jnq
mḥi̯
ḫprj
sꜥm
sṯz
ssm
nꜥi̯
mntf
jnb≡f
kt
wg
ꜣgb
jwḥ
ḏꜣy
špsj
mšr
ḏꜥr
pi̯
sqꜣ
wṱ
ṯtw
ꜣkr
##ḥꜣ
nwy
šnṯ
srd
mtn
ḥtrj
tw≡tw
zt
≡s
nṯri̯
sws
smw
ḫprr
ṯni̯
ṯꜣj
gꜣy
srwḏ
##sw
ḫꜣy
sḏfꜣ
srḫ
jwnw
wšd
dndn
rmni̯
ḫbs
ḫsbd
by
tb
ꜣz
twr
twk
nnj
ḥwr
šꜣw
ꜥnn
sꜥꜣ
nšnj
fnd
ngꜣ
ḳꜣ
ꞽḫ
##ḳr
twn
swr
zꜣṯ
ntw
wšꜥ
qmꜣm
80
bḥn
ḫbꜣ
##ny
ḫnw
sbq
tmꜣ
mꜥnḏ
mrr≡j
ꜥwꜣi̯
ḥqt
ṯḥnw
pgꜣ
tš
št
##ꜣḏ
tjy
tpnn
msḫn
nwr
jꜥꜣw
wꞽꜣ
mḥnk
btj
tk
wh
zꞽ
##ḫb
sḫd
hꜣn
mds
bnw
ḏs≡f
sꜥꜣi̯
ẖꜣk
jšs
wršu̯
sqꜣi̯
25
70
hbn
ẖꜥ
ꞽꜥ
##rr
ḏdw
wnḏ
msꜣḏ
sꜣꜣ
sḥw
bnbn
qꜣj
jꜥꜣ
šzm
mꜥw
zjf
thm
fꜣj
14
bz
dhn
pḫ
whꜣ
ym
zbn
pꜣu̯
ḏdḥ
sḥm
ꜣms
bꜥḥi̯
ꜣṯp
wmt
jhꜣ
mṯn
ni̯
##sj
##mw
##wy
wꜥf
mnn
wꜣw
nww
qrr
nꜥꜥ
tḫb
bbj
sqbb
ꜣzḫ
nd
zf
ẖp
srs
sbi̯
zpꜣ
jptn
skr
sdb
sfn
ꞽꜣb
sz
ṱ≡k
nfw
swꜣi̯
smḫ
jbꜣ
mḥy
bjtj
ḥzj
sdm
wꜣgš
ꜣmj
rq
ri̯
kꜣy
ḥꜣy
sšn
hꜣj
ṯnj
skm
mzḥ
rrm
pds
šwyty
ktḫ
ḏꞽ
ḏwi̯
ḫpd
##tꞽ
snk
ḫni̯
wtt
šny
sḥri̯
ꜣbb
njꜣ
ꜥrḳy
fqꜣ
hnn
qjs
snḥ
hꜣꜣ
nwd
pjpj
ḥꜥpi̯
hmhm
400
bḫn
jmḥ
mnꞽ
sꜣr
ḫꜥw
nmꜥ
dwꜣw
jwnꜣ
gꜣw
swꜣš
ḥmww
nꜥr
ẖkrt
ꜥwı͗
23
jfd
mḫ
si̯
šwꜣ
##gs
kꜣi̯
zꜣt
wꜣḫ
sḫs
sry
ꜣbi̯
jsj
ḥꜥpy
qꜣw
ꜥḥꜣwty
šmsw
pzḥ
bḥz
ꜥmꜣm
bḫ
hy
##zš
##jꜣ
snq
kꜣmn
mrrj
smy
jmꜣḫwt
nwi̯
šnt
nḫtj
sꜥr
sṯp
wdd
wdpw
šmꜥw
qni̯
jdr
tꞽw
ꞽꜣwi̯
nrw
wṯs
ꜣh
ꜣ≡j
ꜥẖ
nbd
nbt
tjḥn
kꜣj
ḏdj
ḥꜣi̯
mjw
msk
jꜣk
sšsꜣ
gmꜣ
qnd
sqdd
sy
w≡s
ḥfd
ḫwꜣ
##ni̯
##ṯꜣ
##ṯw
tꜣḥ
ḫꜣḫ
wꜣwꜣ
jꜣy
sꜣi̯
šnf
jsf
psn
ḏwjw
ḫꜥꜥ
sꜥq
dmꜣ
šdd
jzj
ḏnd
bḏ
dḏw
fr
ꜥfn
nbi̯
ḫnp
hrp
bnn
sḫmḫ
sꜥb
psḏn
sjꜥ
jtj≡s
ḥknw
sḫnti̯
ḫsbḏ
17
br
gnn
kb
##ṯt
mꜣḫ
wrj
bꜣqꜣ
sty
ꜥḥꜥw
sḥd
ntsn
šsm
šꜣb
jzn
mꜥbꜣ
ṯzm
i̯≡f
ḥpj
nqꜥ
nṯ
ḥf
nby
snṯ
jnw
ꜥꜣꜥ
wstn
pwn
jbi̯
ḥwrw
ꜣbḫ
špsi̯
ḥzꜣ
šmꜥy
ḥtj
wnmj
jꜣrr
ršw
ḥmꜣy
srwd
21
22
bq
ꜣr
ꞽꞽ
##wı͗
##wtj
wsf
ḫꜣrw
sbn
rdy
jsw
ntj
jṯj
wšꜣ
dꜣj
sẖkr
ꞽtꞽ
jwꜥꜥ
ṯsm
wbḫ
dḥr
mfk
ẖꜥq
ḫwꜣw
qj
ꞽš
ḥrr
ḥtp≡s
ḫꜣm
ḫnj
jbw
nꜣj
sꜣt
bjty
wpwty
rwhꜣ
rsy
sjqr
ḫwy
bṯ
ṯj
ꜣny
ꞽwꜣ
##zn
nsb
mꜣḥ
stt
srj
ntt
ꜥšm
šꜣj
mꜥr
swsḫ
jhꜣy
18
gj
jḳr
mẖr
m≡k
ptp
qrj
shꜣ
šṯ
##≡n
##ṯs
ẖry
ḥwj
msq
rḫs
gmy
šww
ꜥnd
ꜥnw
jꜥw
ꜥry
ꜥḏn
wḫr
ḏꜥb
šfd
qbb
mfkꜣ
ḳrḥ
ptpt
krjw
mḫn
ndj
sgꜣ
ḳnw
ṯtf
ḥr≡f
ḫnn
bꜣb
msy
wḏj
jꜣꜣ
šntj
nḫw
jꜥn
qnjw
nhi̯
dꜣjw
ḫbi̯
sḥwr
600
dq
ftt
jkn
mzw
wzš
zr
ḏt
ꜣt
ꜥfꜣ
ꜥḳꜣ
##ḳn
nfꜣ
nfrt
ḏdf
wꜥtt
rnsj
jmnt
wꜣb
smt
wtṯ
ḥnḥn
ḫtḫt
ḫntꞽ
ḏꜣꜣ
hꜣṯs
ḏr≡f
ṯnr
nḥꜣ
ḥss
špt
jptw
ḫmꜥ
ḥzy
ḥḥj
wyt
rwḏw
znb
šbb
sḫꜣw
ḫꜣwj
ḥṯꜣ
ḥmsj
2000
ḳnḳn
nhꜣm
byt
700
bi̯
dš
nri̯
sjw
t≡s
ꜣꜣ
ꞽqr
##ḥj
##ḫj
##ṯj
kꜣw
nsy
mrt
wnf
wsj
wsfꜣ
ḫꜣb
jꜣq
ḫntš
šnty
nḥi̯
gsꜣ
sbꜣy
nhzi̯
snṯrj
ꜥḫi̯
twꜣw
##ḥwj
bꞽꜣ
ṯtṯt
szf
bt
bsi̯
pšr
rpw
wgꜣ
yn
š≡f
ḥr≡s
nbḏ
pꜣḏ
wnḏw
mnq
mntw
ḥnḳ
ḫtjw
pnq
nwḏ
ṯnt
sḥꜣ
spi̯
spẖr
njm
njwy
jti̯≡f
šrr
msḏḏ
mmj
ꜣmm
bsk
nḥsy
kfi̯
snwḫ
shr
ḥjp
wṱḥ
24
bgꜣ
qw
sẖr
ḳnj
ꜣš
ꞽꜥb
snnj
kꜣš
ḥny
ꜣḫꜣḫ
sḫty
ḫnty
mḥj
ḏꜣjs
tnr
tni̯
mri̯≡f
psḥ
šꜣms
qrꜥ
ḥty
ꜥrꜥr
ẖnmt
ḫwd
ꞽsṯ
tḫtḫ
26
90
bḏꜣ
bkꜣ
gw
npl
zmn
ḥpy
ꜣj
##sk
##tb
##fy
plt
snt
jny
ꜥꜣy
ḏdd
ḫꜣr
bꜣ≡f
mḥꜥ
bjꜣi̯
jyj
rḫy
ṯꜣr
nḫꜣ
ḥsj
bnrj
wꜣḏy
ꜥqw
qdj
qnw
jdi̯
wšn
mkḥꜣ
ꜥmꜥ
sfḫḫ
ššꞽ
ksb
rṯn
zy
ꜥs
##sr
##ww
##hb
nṯr≡f
pry
mꜣjw
wnwn
swnw
mjtr
nꜣw
sꜣu̯
ḏsw
ꜥnq
dmd
jḥw
drp
ꜥbꜥ
ḏbw
ssw
nšn
zḫni̯
msdi̯
fꜣy
sḫni̯
ḥyꜣ
bꜣgi̯
kꜣry
19
dqr
fnḫ
hw
tı͗
wı͗
zk
zṯ
zi̯
ṯf
ꜣꜥ
ꜥp
##ꜥi̯
snjw
mꜣtj
jtw
jmny
ḥnt
msn
wḏḏ
nwj
tnm
ṯꜣm
jsd
psg
ḥsw
jpp
ḫmnw
jdḥ
jdnw
nhj
ẖn
swꜣḥ
nꜥw
zjn
msdd
sgb
ẖsj
ṯḥḥw
ꜥḳw
27
kı͗
n≡s
zz
šy
##ꜣy
ꜥnḫ≡s
ḥꜣtt
bꜣw
mj≡n
stwt
ḥwy
msj
ꜥḥwty
sšnj
nwꜣ
tnj
ḫꜥm
šwj
qꜣꜣ
qꜣy
sꜥšꜣ
bꜣkj
ḏsrt
ꜥḥꜣw
ꞽbꞽ
sḫti̯
rwjꜣ
sꞽꜣ
dgm
zḫz
nzr
bḫtn
bzi̯
gz
nrjw
rhn
ʾw
ḏm
ḥdb
##dꜣ
##gn
jwy
tjꜣ
sny
pꜣi̯
ḫry
mꜣfd
wrm
mny
tpḥ
nnw
sḫi̯
mjs
ḥww
hrr
ḥḏw
ḥꜥw
šꜣm
šꜣy
ꜥnḳ
ḫtmw
mnḫt
ꜣsb
swtwt
ꞽwꜥ
šfy
ꜥmꜥꜥ
ꜥmꜥm
ršu̯
kfꜥ
bšt
bꜥr
wnšj
ssnb
bḥni̯
tkk
ꞽꜥi̯
zfṯ
gwꜣ
jšr
nwt
tḥ
tḫn
ḏz
##wš
tjꜥm
tjḥwj
ḥm≡f
mꜣr
mꜣjr
ꜥnḫw
ḥꜣd
wꜣm
tpj
mskꜣ
hꜣkr
sbtj
wpj
rsw
qrf
šꜥj
šdj
mꜥꜣ
ꜥrꜥ
ꜥbw
ṯzz
ẖꜣm
nꜥy
ḥpw
ršj
mꞽtr
rrk
jhw
fnṯ
bši̯
dgꜣy
jꜣḫi̯
rḏww
šꜥyd
jšst
bḏn
28
ki̯
npr
ḥd
ḥtꜣ
ṯmꜣ
##qw
##hd
jws
kꜣ≡
ḏdꜣ
swhꜣ
ḥtpw
ẖrty
wt≡f
ꜣḫt
nnm
sḫw
mjt
stm
stkn
msṯ
jꜣl
ḥḏn
tms
ḥsp
ḏsf
wꜣḏw
wḥy
dmy
qrḥ
sksk
mꜥk
nhd
ẖty
sfj
dꜣjr
tyt
sswn
ꞽtr
bḥs
nrꜣ
jtrw
mꜣwḏ
120
ḳnd
dḥꜣ
shꜣi̯
ḥjḥj
sꜥꜣm
bqs
29
ffj
hnj
znn
ḏnḏ
ḳbw
ṯi̯
ꜥi̯
##ḏi̯
tjm
tjj
jnḏ
rʾ≡f
mꜣṯ
ꜥnḫ≡f
mntj
tpꜣ
ḥntꜣ
ḏꜣs
ṯntj
rḫty
sbt
jtn≡f
zpi̯
nmnm
qnn
dꜣw
sskꜣ
mnjn
ꞽꜣw
thr
thj
sḫnt
jꜥrꜥ
ṯms
ꞽpn
tfnw
zmy
rrmi̯
36
n≡k
qfn
rrj
ẖsi̯
≡sn
ꜣhꜣ
ꜥgꜣ
##mj
##zꞽ
##kt
nbꜣ
pꜣḫ
kꜣrj
ḥmn
ḥtpj
ḏi̯ḏi̯
ḫꜣḫꜣ
bꜣy
ḥwꜥ
wḏf
tnn
ptḫ
sḥr
ṯꜣs
ḏww
ꞽrp
jwi̯≡s
pḥty
jzz
sdbḥ
gꜣs
ḏḏ≡f
ḥbsy
mkj
ṯsj
hnqw
ꞽꜣm
ḫꜣwy
bšꜣ
nsrsr
ꞽzzꞽ
kns
knz
jqd
swsr
ẖpꜣ
ḏndr
swnwn
bhꜣ
hꞽ
kp
kḥ
ksi̯
kbs
mhꜣ
nꞽs
ppj
wšr
ḏy
ḏnj
ḥk
ḫbn
##šb
nb≡
snti̯
tꜣw
kꜣꞽ
wnj
jttj
ḫnš
bꜣẖ
wt≡s
ꜣḫw
ꜣḫty
stn
wjn
sšwi̯
sꜣwi̯
mḥty
ḫprw
bjw
rḏj
ꜣby
rdw
jss
jsb
jsy
jsq
rnpj
jwi̯≡f
ꜥni̯
dmꞽ
jḥꜣ
šdḥ
sdj
sdgꜣ
smꜣwi̯
smsm
njk
twtw
jšš
zšš
zbj
dnḥ
ḫnfw
bsbs
wbs
pšš
jhy
ꜣṯw
ḏrḏr
gngn
ḳnb
rpꜥ
ꞽdw
ꜥfḏ
mḫnt
ḏnḏr
fw
gbꜣ
jpy
khꜣ
ktt
mṯꜣ
nrj
rpy
sjs
tbn
tḥn
wf
šty
ꜣjr
ꜣtj
##dw
##br
##ks
jw≡f
snḫ
nfrw
swš
ḫꜣd
ḫꜣj
wtw
ḥnb
wj≡f
pnw
ḏri̯
nḏrjw
wpp
bwꜣ
rmt
bꜣkjw
mšd
šꜥw
jḥj
jḥty
ꞽnn
gbtw
pfs
njnj
tyw
ḏꜥꜥ
ssꜣi̯
zmꜣm
ẖnmw
zšn
ḫbḫb
fdq
ꜣmꜥ
mꜣwj
kkw
fnt
ṯḥḥ
ḏfḏ
sndu
tw≡n
jkb
jkm
ꜥff
wgg
sḥmi̯
sḫsḫ
bjwk
37
800
dḫ
djw
fṯ
htj
ji̯
pg
pqr
qꜥ
qq
w𓊇
zbꜣ
šḏ
ḳꜥḥ
ẖt
ẖms
ꞽwt
##ꜣm
##bj
##rm
##≡w
##kw
##ḏn
##ḏj
##ḳw
jmk
tj≡f
jnd
jntj
kꜣm
ḥmy
ḏd≡f
twnj
wnb
ḥꜣg
ḥꜣtj
jmntw
mnz
ḫnḏ
jbrj
ḥns
ḥnnj
ḫtj
tty
sꜣṯ
hꜣd
mdn
ptj
sḥrjw
jsr
ḥꜥb
ḫꜥr
gstj
rwy
pḥrr
qꜣḥ
qꜣjs
jṯṯ
qdd
gꜣš
pḏi̯
ḫpš≡f
ddwn
##nḏm
wrry
ksj
ꜥntjw
nqm
mḏdw
hbu̯
dgi̯
wꜣww
ꜥẖn
jꜣkb
sswnu̯
33
gp
r≡f
wfꜣ
zwꜣ
štm
ẖzi̯
ꜥfd
##šd
##hy
##kḥ
ḥrs
tjs
tjḥ
tjtj
ḫrš
nfrj
kꜣn
kꜣpw
nst
nsj
ḥmj
mꜣmꜣ
ꜥꜣg
swḫꜣ
mꜣꜥj
bꜣḳ
wtn
ḥnj
sḫwn
mstꜣ
ꜥḥw
ḏꜣf
ḏꜣḏ
sḏḥ
ḏrjw
sḥb
sḥwi̯
wpt
jsp
##bnj
grt
tmt
šꜣjs
##bꜣbꜣ
qdw
sjm
ꞽnt
stpt
ꞽwr
ꞽwf
dpw
twti̯
bdd
jnnk
ꞽꜣr
msḏi̯
mꞽn
ḳnjw
nhmhm
šmꜣj
mhw
nzp
wgs
wꜣḫi̯
mnjnjw
kḥkḥ
btn
bhn
bgs
jgꜣ
kḏn
pfꜣ
szw
ti
whm
znj
ı͗
štj
ḥʾ
ꞽpw
##sꞽ
##dy
##rn
##zk
##št
##gm
##ḏd
jmr
snh
snḫt
nṯrj
mꜣwi̯
wnt
zꜣi̯
wꜣr
smꜥ
bꜣn
jbr
ḥntj
mjmj
pnṯw
jꜣj
sšt
hꜣp
pꜣyw
nḥrw
rḫj
mtnw
rnpw
ḥꜥꜣ
gr≡f
ḥsy
ꜥnp
ꜥnty
sṯn
sṯzi̯
sṯni̯
jꜥꜥ
wdḥw
ḫsd
jḫḫ
mšwš
nhs
ẖtt
gbgb
ẖꜣb
jꜣwj
ḫwrr
sẖn
ḏḥwtt
nšny
ḥryw
ḥbnbn
kkwy
ꜥwꜣy
##tft
bꞽn
jhj
nḥsj
bbꞽ
sꞽꜥ
pyr
ꞽḫm
whi̯
bꜣby
sntrj
jtwr
ṯḥḥwy
ḥʾm
35
39
dbꜣ
gy
qḏ
spy
ti̯
u̯
whn
zẖ
šwty
ḳḥ
ḳw
ꜣp
ꜣg
ꞽbḥ
ꞽdb
##mṯ
##pḏ
##fw
##ḫf
##kk
jm≡j
prw
prꞽ
tꜣḫb
nfry
ḥmm
wꜥꜥ
rnsꞽ
mnfy
pwj
smꞽ
bꜣꜣ
ḥnbꜣbꜣ
nny
nnk
sḫꜥi̯
mstj
pnd
šnꞽ
srm
nḥd
nḥp
sbš
mtꜣ
wpš
ḫfꜣ
##wꜣḏ
bnf
bnꞽ
ḫꜥy
ꞽrꞽ
wꜣḏwꜣḏ
jpt
jpf
rmj
qꜣqꜣ
sꜥḏꜣ
qdjw
qrqr
wnmi̯
djfn
djdj
ꞽnb
sdḫ
jꜣbt
sfꜣ
gꜣbw
gꜣḥs
mḏr
pḏpḏ
nšni̯
dny
ꜥḫḫ
mtrtw
mzḥw
nḫbḫb
ḥṯṯ
ḫdj
tḫi̯
ksm
mjnb
ẖsꜣ
ḥwꜣꜣ
sꞽn
wꜥwꜥ
dgs
tkꜣw
kšj
ktkt
ḥwrꜥ
tši̯
ḥfdi̯
ḳwḳw
##mṯk
42
bg
htt
jf
khb
nkꜣ
nqr
pq
t≡
zꜥm
ḥḳr
ḫšb
ṯṯj
ẖd
##bẖ
##yw
##ḥy
##wḥ
##jn
##jj
##hr
##kb
##ꞽw
nb≡s
jmt
jwsw
prwı͗
jnḫj
mꜣꞽr
ꜥꜣw
ḏdm
ꜥnḫj
swj
swbꜣ
swgꜣ
wrs
ḥꜣꜥ
jmntt
mnf
mnh
ḫꜣwt
smjw
bꜣtꜣ
wt≡sn
jbsꜣ
šmšm
sꜣšr
hꜣr
tny
šnm
srḏ
nḏꜣ
mty
ẖnẖ
ḥḏr
nḫꜣḫ
ḥꜥḏꜣ
ḥꜥtj
psmṯk
ḫꜥj
gsw
špn
jptf
qꜣd
šꜣi̯
ḫmḫ
wdj
psḏi̯
jḫr
šdšd
jdj
jzy
ꜥrw
drf
ḫꜣsw
jꜣbi̯
ḫsfi̯
nht
ẖt
qbḥw
ṯꜣwy
wšm
wšš
pꜥn
wsḫt
ḫwꞽ
ḏꜥꜥm
ssḫ
ꞽti̯
nšꜣ
zšzš
##trt
ꜥwg
šbw
ꜣḥt
šrꞽ
rtnw
ꞽst
ꜣyt
sḫtḫt
wršt
jhm
mjnꜣ
jntsn
fntj
dgꜣs
jkw
jnsj
zḫi̯
swrd
hꜣnꜣ
mḫw
ꜥẖm
shru̯
sswnw
ṯfw
ḏmꜥ
34
bwi̯
bꜥb
ftft
hdn
htꞽ
kbnj
mṯ
ndb
qt
qfd
ršr
wz
ywt
šꞽ
štw
ḥfj
ḳḏ
ꞽṯ
ꞽdn
##sf
##sl
##tjw
##ns
##ḏrj
nbḥ
jww
jwj
tjn
tjwtj
sns
snš
snhꜣ
pꜣd
prš
nfꜥ
nfj
kꜣt
rʾw
ḥmtj
ḏdꞽ
twrj
twnn
sww
jt≡s
wrt
wrw
wꜥꜣ
wst
rn≡s
jmntj
mns
ḫꜣḏ
mꜣꜥt
du≡f
wty
jbb
ḥnnw
ḥnzk
stnm
wḏn
wḏfꜣ
jꜣṯ
jꜣjr
jꜣzn
sꜣm
sꜣtꜣ
hꜣm
sḏf
tnbẖ
mdnj
ṯndu
ṯntꞽ
sby
bnd
bnš
bnḏ
ḏswi̯
gsgs
rmm
ꜥnꜥ
wḥwḥ
sṯs
ḫmm
jḫḫj
nswy
nꜣyw
jzi̯
skn
mꜥnḫ
ꜥḏr
mḏꜣb
wjꜣwj
sẖm
sspd
jšf
ꞽtn
bjꜣk
pzš
pzḫ
sḫpt
dng
ḫbd
ꞽsk
sjꜣṯ
dby
npḥ
mjni̯
sbjꜣ
mẖt
ḫsbb
ꞽzꞽ
hmṯ
110
jgp
nꞽꜣ
ꞽdr
zmjn
jqrj
ḥwtf
tbtb
zft
szn
njꜣjꜣ
bḫḫ
ꜣhd
jꜣkm
ꜥstrt
ẖrtyw
jzzy
zššn
szwn
ẖnẖn
nḫꜣḫꜣ
bꜥbꜥ
ršrš
wjꜣwjꜣ
000
dpy
dḫn
fs
fq
gg
hʾ
hi̯
iw
kh
ktw
mb
pẖ
qbw
rṯ
t≡sn
y≡f
ḫz
ṯtt
ṯfj
ẖtb
ꜣf
ꜣqꜣ
ꜣjs
ꞽty
##st
##sḥ
##pꜣ
##ry
##rʾ
##rṯ
##ẖb
##ḫd
##ꞽn
nb≡j
jr≡f
jwjw
jwpw
jwdn
tjms
pꜣz
ḫrj
jnjw
jnty
mr≡f
mꜣnw
ḏdb
wng
swh
zꜣr
wrḥw
ḥꜣpw
ẖrt
bꜣ≡s
mjj
mst
jꜣtt
mḥwn
ḏꜣw
srjw
ḥḏḏ
nḫj
ḥꜥn
ḥsr
ṯwfj
gmgm
kwꞽ
ntš
šwb
ꜣbdw
šꜣṯ
ꜥnꜥr
sꜥn
špst
sṯy
sṯnj
ḫmy
wdb
mšn
sjd
šꜥi̯
sky
skj
ḥbb
sdꜣw
sbꜣq
nhsi̯
nhrn
gbw
ḫwi̯≡s
ꞽws
ṯꜣwı͗
mrḥw
wḥmw
ẖnmw
dꜣdꜣ
ḫwfw
ssf
ssḏ
ꞽtḥ
ddj
nꜥj
šbi̯
dbḥn
ṯss
dni̯
hni̯
snfrw
ḏjḏj
mzt
bjnr
ḥmꜣm
fdi̯
sjꜣt
ꜥdw
qmd
ḥzi̯≡f
dbdb
jhh
ksw
msdmt
sndw
ḳny
smḥi̯
mꜥḥꜣ
sẖꜣww
ꜥꜥn
ḏrjḏrj
tfi̯
mfḫ
ngg
i͗nj
zmꞽn
ḳrs
tbj
mnqb
sḥꜣp
ꜥstj
nwꜣwꜣ
jšrw
ḥntꜣsw
wḏfi̯
mnzꜣ
ꜥḥwwtj
sdꜣwg
38
46
55
dwi̯
fꜥ
gḥ
kṯ
mhn
rh
rqꜣ
su
t𓊇
tbw
znw
zḫꜣ
štp
ṯṯ
ꜣn
ꞽh
ꞽꜣḫ
##bb
##ḥm
##nt
##hw
##km
##ḏḥ
ḥrt
jmpy
tjr
snꞽ
sn≡j
ḫrd
prt
jnmm
mrkb
mꜣd
twṯ
twri̯
wnp
wsš
wsi̯
wsṯn
ḫꜣbs
wꜣy
smwn
wtjw
jbn
jbṯ
sḫꜥ
mjnj
stf
wḏy
ḫtf
pns
šmsi̯
sšwꜣ
sškr
sꜣy
sꜣrj
sꜣsꜣ
mḥꜣ
mḥt
ḏꜣt
sḏw
nḏd
nḏḥ
nḏw
mwy
mwmw
ptn
ṯntt
sḥrj
ꜣbj
sbṯ
ẖnnw
ḥḏt
spt
ꞽmꜣ
ꞽmꞽ
ꞽrṯ
gsfn
wꜣḏt
rww
jpd
jpl
rmnw
šꜣr
wdf
ḥzp
ḫsꜣ
jḫj
sjpj
šꜥt
šꜥf
šꜥq
jdy
jzr
jzkn
ꞽnq
##tyw
mrrt
sdw
nḏmnḏm
gbj
ꜣwj
zḥp
ḫwsi̯
sẖi̯
znš
šnꜥw
ḫnmm
sḫpj
nšw
zšp
ḥnkt
zbṯ
hnhn
ꞽꜣq
ꞽꜣzn
ḫbz
mzꜣ
tpl≡f
sꜣḥw
ḏfꜣw
jꜣdr
fꜣt
bss
wbdj
jmꜣm
ꜥrfwı͗
sḫntj
sjni̯
ksks
zwnṯ
ḏrww
3000
ḫnrt
šꜣsw
tw≡t
kršt
ḫmny
hpꜣ
snmḥ
ḫwj≡f
sdꜣdꜣ
zmz
##bst
mhr
nzn
wgi̯
šnṯṯ
tmꜣm
whs
whnn
sḫdḫd
hbnj
mꜥwḥ
ndꞽ
sfnd
jbꜣn
snḥm
mḫr
mḫsf
sꜥrq
ṯjṯj
bꜣbj
ꜥḳꜣy
nfꜣj
mntwf
sẖnk
subst
77
900
bk
bsn
bṯn
fy
fk
fkꜣ
gš
hq
hwt
kꞽ
krj
knj
mfꜣ
mgꜣ
sḳ
tfꜣ
tbs
tḥwj
yṱ
yꜥr
yꜥi̯
ṯwꜣ
ṯkw
ẖb
ẖꜥꜥ
##tš
##ꜥq
##mt
##yt
##nb
##ḫr
jrnn
snwt
snṯi̯
prḫ
jnṯ
kꜣꜣ
rʾ≡sn
mꜣm
mꜣy
ꜥꜣḏ
ḏdk
ḏdṯ
jtt
zꜣš
wrl
ḥꜣḳ
ḥtpt
mni̯
ḫnnj
ẖrm
smtj
bꜣi̯
jby
jbh
ḥnṯi̯
ꜣḫj
mjty
stni̯
ḫtsl
jꜣš
jꜣi̯
ḫntw
sꜣd
ḏꜣj
ḏrṯ
nws
nḏf
ṯnm
nḥy
sḥsḥ
ṯꜣu̯
ẖnk
wpꞽ
wpwt
sps
spḫꜣ
bny
nmtj
ḫfty
pḥḏ
špnn
wsrt
sꜥḳ
ḏḥꜣ
ḏḥꜥ
jṯt
jṯw
jṯn
jwnn
ḫmw
qdi̯
sšmm
sšmw
ḫsḏ
šmꜥi̯
mšṯ
sjwi̯
qnꞽ
šdy
šddj
tꜣyw
ꞽnpw
tꞽt
ꜣpdw
skt
mꜥm
mꜥnn
ḫpḫ
mrry
sdḥ
smꜣy
smꜣw
snbb
snbj
nhw
sfr
sfg
ꞽwd
gꜣḥ
mḏw
dꜣp
ḫwḫ
ḫwzi̯
ntyw
sẖp
twtn
stẖj
dsj
spdd
jwꜥy
nꜥš
ḏḥwtꞽ
njwjw
mntjw
ṯsy
ḳdw
ḫbb
ḏfꜣ≡j
ḥbnnw
ꞽsw
fdw
bꜥḥj
fꜣw
ḥbnnt
bsy
jrtjw
sꜣwj
bꞽꜣi̯
ḏnr
1200
20000
sjrʾ
btꜣw
mẖnty
sꞽp
sšꜣꜣ
jdꜣt
ꜥꜥnj
bꜣgs
ꞽpꞽ
mnḏm
ṯtꞽ
hbhb
hdm
ḫjy
ztꞽ
tštš
pḫd
ndy
sḫsf
qrjs
ḫntšj
qfdn
du≡fj
sdwḫ
hpꜣṯ
nznzn
mfꜣk
31
bẖ
dbw
fsi̯
fgꜣ
ht
imn
kpw
kḥꜣ
mg
mkꜣ
n≡
ni
pgs
rjw
r≡w
sḳꜣ
tṯ
yh
ytp
zpr
šḳ
ḥwty
ṯṯw
≡k
ꜣty
ꜥ≡f
𓍹w
##by
##bi̯
##ꜥš
##mr
##nꜥ
##np
##nr
##qb
##kj
##ḏh
nbꞽ
nb≡sn
jrꜥ
jrtj
jwp
jwms
tjwt
pr≡f
jnꜥ
nft
nfr𓍺
nfr≡f
kꜣh
rʾrʾ
mrꞽ
mrwt
ꜥꜣt
ꜥꜣj
wntj
jri̯≡f
jtꜣ
wsy
jmnw
mnfꜣ
wꜣt
wꜣsi̯
ẖrw
ẖri
ẖrı͗
smḏd
bꜣš
bꜣkꜣ
bꜣwj
bꜣwı͗
wtꞽ
wti̯
ḥnm
ḥng
ḥnʾ
ḥnṯ
ḥnsk
ꜣḫi̯
sḫꜣḫ
sḫnj
mjꜣ
str
msḫꜣ
jꜣt
jꜣg
sšs
sꜣbw
mḥꞽ
mḥ≡f
ḏꜣd
hꜣmm
sḏwi̯
sḏrjw
rḏy
srmw
mdd
mdj
sḥt
sḥꜣi̯
ꜣbꜣ
ytj
ẖny
rdm
jshꜣ
jsbw
nḫy
nḫṱ
spp
wḏꜣw
ḫfḫf
pss
ḏw≡
ḏwḏw
ḫꜥ≡f
ṯwn
nmrṯ
ꞽmr
nts
ntꜣ
ntb
ntꜣi̯
mtwn
ꜥšj
ꜥšgꜣ
pḥw
pḥwj
rmy
qꜣm
qꜣjw
šꜣd
ḫtmt
jwny
sṯꞽ
ḥzꞽ
dmg
qdb
qdm
jzp
ꞽnm
mꜥn
ꜥrrw
sḫrw
ḥby
ḥbi̯
nʾn
kms
smꜣr
šmsj
sfd
sfy
ꜥbꜥb
mḏꜣt
gꜣj
wšꜣw
swꜣw
dꜣr
ḫwns
pḏw
nḥmm
sẖt
sẖnn
ssj
mnjꜣ
sqn
sqbḥ
sqnn
sṯꜣm
wꞽn
ẖnmt
wꜣgi̯
šft
nšd
nšf
ḥnkz
zbb
hnnj
jnbw
ꜥḫy
bnrt
wḫꜣwy
snfḫf
twꜣwt
ḫbḏ
ꞽmny
ꜥgt
sjꜣꜣ
ḥṯꜣw
sfḫw
nmst
pꜣwr
rrw
tḫy
pšs
kss
ḏnꞽ
ḫḫwj
ḥzzy
stḫy
ḏrḏrj
šnḏt
ḥfꜣw
hhj
smḥr
snwḫt
snny
thꜣb
npꜣpꜣ
bꜥn
krp
fḫḫ
ꜣqs
sꜣb≡j
sbjwk
ṯmzj
rḥḥ
tfy
shrr
ꜥft
mꜣtꞽ
šmꜣm
dwḏw
mhi̯
mhwj
ḳꜣḳꜣ
bzꜣ
rqy
ḏwjwı͗
ꞽšd
mzwr
zrm
jsds
sꞽꜣt
tḥwꜣ
ḥdd
nhdhd
tjmḥ
kpny
mhꜣw
snḫḫ
ḏfḏf
ı͗t
nḥrwı͗
nḏꜣḏꜣ
sꜥnd
tbsṯꜣ
rʾrʾmw
wšꜣwšꜣ
snfḫfḫ
ḥṯꜣwı͗
45
87
bm
bh
bl
bbw
dh
dnḫ
gf
gi̯
hs
hpj
j≡f
jfj
kꜥ
kz
kmꜣ
mi
mḳr
npj
ppw
qf
rḥw
rhd
tbꜣ
tšꜣ
wa
w≡k
yi̯
škr
ḏnw
ḳrj
ḳmꜣ
ṯk
ṯjs
ṯkr
ẖz
ẖty
ẖꜥm
ꜣk
ꜣḏ
ꜥkk
ꞽk
ꞽbꜣ
ꞽꜥḥ
ꞽḥw
ꞽꜥr
##sy
##dš
##ꜣꜣ
##tk
##bḫ
##pꜥ
##jḥ
##qd
##qt
##gr
##ḏr
##30
nbb
jwtj
snhd
pꜣs
pꜣꜥ
pꜣṱ
ḫrḫr
jnz
tꜣtꜣ
nfy
kꜣwty
nss
ḥmu̯
mꜣf
mꜣṱ
ꜥꜣꜣ
swy
swḫ
swsn
swjꜣ
wry
ḥꜣj
ḥtpwı͗
ḏi̯≡j
ḫꜣz
ḫꜣbw
ḫꜣtb
ẖrꞽ
smsi̯
bꜣd
wtꜣ
jb≡
jb≡f
jbtj
ḥni̯
ḥnti̯
nnš
sḫy
sḫḫ
ḫrwyw
ḫty
pnz
jꜣs
jꜣꜥš
ttw
ḫntt
sšš
sꜣj
sꜣjr
ḏꜣb
hꜣrw
nwꞽ
nw≡f
ptꞽ
nḥn
nḥḏ
sḥqꜣ
hry
wps
jsḫ
jstn
nḫi̯
spi
bwj
ḫfj
ḫfnn
ḥsk
mdwy
nmꞽ
kwms
ntnt
sḏmj
pḥr
pḥwy
špty
nḫtw
qꜣꜥ
qꜣḥꜣ
šꜣꜣ
šꜣf
šꜣjw
špsw
ḫmj
jꜥj
##jsj
mšꜣ
sjꜥr
ḥtw
šdnw
ꞽnꜥ
ꞽnḥ
mꜥkꜣ
hꜣbq
hꜣbwj
smꜣwj
wbnw
ḫꜥi̯≡j
nhy
ꜥbb
gꜣnn
ẖꜣp
snṯri̯
ḏbb
mḏḳ
mḏri̯
wšwš
pꜥw
pfsi̯
qst
dꜣg
mkw
štꜣy
štꜣw
ꞽbb
ꞽbi̯
sẖb
sꜥḥw
ssnḏm
jjj
znḥm
try
bjꜣy
wꜣgj
šfw
šfu̯
nšz
mntn
ꜥmm
ꜥwj
ṯrm
ṯrw
ṯrf
ṯsw
sḫꜣy
hnꞽ
ꞽꜣrr
thn
šrdn
bḥbḥ
ꜥḫw
snfj
nrr
mzi̯
jpwy
ꜣšrt
nkk
tḫj
jmꜣw
ḏnb
sḏꜣy
##fdf
bšd
bšš
mẖrj
mẖnm
ḫḫj
bꜣst
ꜣṯi̯
ṯḥnn
ḫsbt
nhꜣjs
thꜣm
ꞽzn
kry
krbr
mjzt
ꜥntꞽw
ꞽḥꜣ
ꞽḥy
sẖꜣk
kfꜣw
ꜥꜥj
ꜥꜥf
jksj
ḥꜣww
ḥnnꞽ
wḥꜣm
hbj
hbi̯
ꜣꜥꜥnj
jmsṯ
gꜣbi̯
gḥsꜣ
spḥt
150
i͗j
wbdy
sgrḥ
pyꜣ
dwnj
jdmj
5000
swst
ḳꜣb
ḳꜣj
ḫnws
pgꜣs
pgꜣjs
whh
2500
sḥwrj
bzn
ndfdf
sdmj
rqi̯
jfdj
mꜥbꜣy
nsyt
wgꜣg
ꜥpi̯
zzḥꜣ
mꜥkj
nbꜣbꜣ
hꞽw
mhꜣwt
ḳꜥḥt
ḥꜣgj
gꜣšj
nkꜣj
ḫmḫm
ꜥnꜥn
szwnu̯
nḏḥḏḥ
ytpl
𓍹wnn
kꜣhs
mjꜣz
bmbw
dnḫnḫ
ṯktn
43
44
54
72
bꜥꜥ
dz
dꞽ
da
dfꜣ
fnn
fgn
gnw
hjw
hḏh
jṯr
jkꜣ
jfn
ktj
knn
mq
mẖꜣ
ngb
pṯ
qfꜣ
qzn
ru̯
rḥs
rbr
tṱ
tfj
za
zrw
zzi̯
šu̯
ḥꞽ
ḫi̯
ḳbb
ẖpw
ẖzj
ꜣẖ
ꜣḳ
ꜣḏꜣ
ꜣꞽs
ꜣdj
ꜣẖb
ꜥpj
ꜥpw
ꜥpp
ꞽfd
ꞽhm
ꞽṯw
##sꜥ
##sḫ
##ds
##t𓊇
##bt
##ꜥw
##mz
##pt
##rf
##ḥṯ
##zy
##nf
##ng
##10
##≡tw
##hl
##k𓊇
##50
##ḏs
##ḏm
##70
ḥrjw
nbnb
jrsw
jmzw
jwm
jw≡n
tj≡s
tjpl
tjdu
sntj
snḥw
snḫb
pꜣt
ḫrr
ḫri̯
tꜣꞽ
##nḫj
kꜣ≡s
kꜣwj
kꜣmw
nsjsj
rʾy
mꜣu̯
mꜣgs
ꜥꜣ≡s
ꜥꜣgꜣ
wnwt
jtḫ
jtḥw
zꜣtw
ḥꜣr
ḥꜣfy
ḥtpꞽ
ḥtp≡f
wsḥ
ḏi̯≡f
mnm
mnsꜣ
ḫꜣꜣ
ḫꜣrj
ḫꜣmm
ḫny
ḫnrj
ḫnpj
wꜣp
wꜣj
wꜣmm
wꜣṯj
tp≡f
smꜥr
bꜣj
bꜣgꜣ
wtwt
jbs
ḥnr
ḥntꞽ
nnʾ
stnw
wjwj
wjyt
ḫrwy
mspr
msšꜣ
msḫt
pnjꜣ
jꜣmꜣ
##jry
sšw
sꜣ≡f
sꜣẖb
ḏꜣꞽs
hꜣbnj
ḫprpw
sḏt
sḏꜥ
bjbj
ḏry
ḏr≡
ḏrtj
nwḫ
tnt
tntj
nḏtj
nḏrw
mwnf
ṯnꞽ
nḥni̯
sḥḥ
sḥqr
sḥꜣw
sḥjḥ
ṯꜣꜣ
sbqꜣ
sbty
mtk
jsdn
spnꜥ
bwy
bwn
rnpwt
grw
##wꜣḥ
ḏsḏs
ꞽmꜣm
mꜣꜣ≡f
gmḥw
gmḥs
gsr
rwwj
pḥs
pḥt
jpꜣ
wsrkn
nḫtṱ
rmrm
dwꜣy
šꜣp
šꜣbw
ꜥnnw
sꜥsꜥ
ḏḥtj
špsꞽ
ꜥqn
wḥs
sṯsi̯
jꜥš
wdnw
rsf
rsꞽ
ḥzt
bꜣky
dmm
qdwt
sšmj
mšš
sjḥ
qrrj
ḥtꞽ
šdn
wnmw
djꜣ
jdt
ꞽntꞽ
tꞽꜣ
skk
sksn
mꜥy
mꜥq
mꜥtn
nʾwt
kmm
kmw
mnwy
mrrw
sdd
sdwꜣ
sbꜣw
sbꜣg
jꜣbw
nhr
nhz
wꜣḥwꜣḥ
qrst
sprw
nḏmw
ꜥḏi̯
ꜥby
ṯzj
dpt
ḥḥi̯
gꜣꜣ
gꜣgꜣ
gꜣfj
ẖꜣꜣ
ẖꜣy
wjꜣ≡f
ꜣww
pꜥy
qsj
jꜣwy
dꜣꞽr
ḫww
mks
i̯≡s
njt
sẖrj
sꜥḥ≡f
ḏꜥn
šnwj
znṯ
znbꜣ
trp
sqrj
≡fj
sṯꜣz
##twy
šnꜥy
wḥꜥw
ddw
ḥpp
nšnn
zšj
zši̯
mntt
ḏbꜣw
ḫnsꜣ
ḫnsꜣy
ḥnkw
šbd
pjꜣy
jꜣrw
zby
dnd
dnꞽ
ꞽꜣš
šrw
jnb≡s
##pwy
zwṯ
zwrj
nrꜣw
mtrḫ
ḫbbj
mzmz
wnḫwı͗
rkḥw
mꞽz
rtḥty
ꜥgwt
mmrm
ꜣmꞽ
ꜥdy
mꜣwy
ḥṯs
ḫdb
qbqb
bꜥḥw
fꜣꜣ
ḥbnnwt
bsj
tḫw
tḫbs
sḫnš
nẖn
ꜥqꜣn
bꞽk
jhbw
jhhy
npnp
ꜥḏdj
twjꜣ
kfj
mẖꜥq
ḫḫm
wḫdw
ṯḥs
ṯbww
30000
gnẖ
smḥj
ꜥnḏw
šbnw
hpn
wꜥwy
knkn
sꜣbj
sꜣqḥ
ꜥꜥw
ꜥꜥꜣm
jkj
ꞽptf
hbq
nꞽw
jbjb
gꜣbgꜣ
shp
ꜥmꜣṯ
i͗s
i͗y
i͗rj
i͗dj
i͗dw
smꜣmw
130
šmꜣꞽ
ḳrr
jqw
nzꜣ
ḫjḫj
ꜣgbgb
ḫbss
ngꜣgꜣ
tšjw
štjw
whb
hbnw
whꜣn
ẖpꜥ
##tꞽw
wꜣḫj
ꜥẖi̯
jꜣkw
jsfy
brt
bry
šꜣbd
nṯb
ꞽꞽꞽ
wšꜣm
ꞽšš
ṯjf
mꜥrd
krjw≡f
mḫntj
jꜥnꜥ
sjwr
wgꜣs
yns
ꜥpnn
ꜥpꜣy
ḥntʾ
jsdd
jsdz
mꜥꜣꜥ
nprj
tjmḥj
ꜥgꜣy
sdgꜣw
ꜣjr≡f
tjḥwꜣ
tjḥnw
sḥbi̯
ḫsdḏ
zẖi̯
ꜣgg
mnhz
wzm
snsnj
fss
ꜣfꜥ
ssḏm
ꞽꜣḫi̯
nḏdḏd
hqs
sḳnn
sšsꜣw
ꜥšgꜣj
nssq
hḏhḏ
zahl
zrwḫ
snḫbḫb
mꜣu̯i̯
pnjꜣt
41
58
56
62
73
88
bwt
bṯꜣ
df
dnm
dnw
dḳr
ff
fg
fnw
gnm
hꜥ
htp
hwi̯
hkr
hṯt
in
jṱ
jkr
jḏj
kṯn
m𓊇
ma
na
npw
ph
pwt
pjs
qḥ
q≡f
qtꜣ
qtm
qrjw
rg
ra
rkr
rwty
sa
sꞽs
tkr
t≡j
wi
w≡j
w≡sn
yꜥ
yj
zẖr
šri̯
ḥpr
ḥpd
ḫš
ḳḏw
ṯjr
ṯbn
ṯrj
ṯjw
ṯjꜣ
ṱ≡f
ẖṯ
ẖti̯
≡w
≡tw
ꜣꞽ
ꜣwt
ꜣwꜣ
ꜣꜥb
ꜣti̯
ꜥt
ꜥy
ꜥbḥ
ꜥ≡j
ꞽi̯
ꞽṯr
ꞽkn
ꞽṯn
##dḥ
##ꜣs
##bq
##bšb
##ꜥḏ
##mḥ
##pn
##pḫ
##rs
##yḫ
##ḥr
##zꜣ
##zḥ
##šs
##šn
##ht
##ẖt
##ꞽꜣ
##gt
##ḏꜥ
##76
##ṯṯ
##20
##40
##400
ḥr≡j
ḥrti̯
pl≡
pl≡sn
jrs
jrk
jm≡f
jmby
jw≡s
jwhꜣ
jwdj
jwgr
snty
snnm
snḥꜣ
nṯrw
pꜣwt
pꜣ≡s
pꜣꜥr
pꜣwtj
rꜥy
rꜥjꜣ
pr≡sn
jnbꜣ
jnsi̯
jntn
jndb
jnḥw
tꜣf
nftft
nfrwy
kꜣs
nsq
nsꞽs
nsns
ḥmz
ḥmꞽ
mꜣꞽ
mꜣmw
mꜣkj
ꜥꜣp
ḏdt
twh
tw≡f
twhꜣ
wns
wny
wnu̯
swd
swdn
swḫt
swmt
jtf
jtjw
jt≡j
zꜣy
ḥꜣqꜣ
ḥꜣwty
ḥꜣdj
ḥꜣḥꜣ
wsdn
rn≡
mnwt
mnty
ḫꜣt
ḫnꞽ
mꜣꜥtyw
dupl
wtḫ
jbd
jbkꜣ
ḥnbw
nnt
sḫnn
stb
stꞽ
stꜣw
msḫ
msṱ
wḏw
wḏbw
ḫtw
ḫtꞽw
nꜣb
nꜣš
nꜣḥꜣ
pnn
pnj
jꜣwt
jꜣḥs
##jrj
sšy
sšj
sꜣn
sꜣh
sꜣwty
sꜣmm
mḥs
mḥrj
hꜣqꜣ
hꜣnw
sḏsr
bjṯt
rḏḏ
tnꞽ
šnp
nḏy
nḏḏ
nḏ≡f
mdt
ꜥḥꜥj
ꜥḥꜥ≡f
rḏi̯≡f
ṯnꜣ
ṯnfj
jyꜣy
rḫ≡f
rḫtj
rḫ≡j
sḥq
sḥwꜣ
sḥwj
sḥꜥi̯
ytt
yt≡f
ṯꜣb
ṯꜣpr
ṯꜣtj
sbg
sbḥw
mtꞽ
mtrj
mtꜣw
ḥḏb
rdt
rdḥw
jsn
jsfj
nḫr
nḫnḫ
nḫbw
spw
wḏꜣj
hrw≡sn
rnpt
ḥꜥj
grj
tmy
tmw
tmtm
ḫfy
##wꜣj
ḥst
bnt
bnu̯
ḏss
ḫꜥrw
ṯwṯw
nmtꜣ
ꞽmw
ꞽrt
ꞽrtꞽw
ntn
ntꞽ
##000
sḫm≡f
sḏmy
jwi̯≡
rwr
rwꞽ
pḥd
pḥtj
pḥww
jpdw
nḫtꞽ
rmnn
qꜣꞽ
šꜣn
šꜣš
šꜣṯw
ꜥnb
ꜥntꜣ
ꜥnnḫj
sꜥqꜣ
jṯf
ꜥqꜥq
jwnry
sṯt
sṯḥn
jꜥy
bꜣkw
kyj
qd≡k
šmꜥj
mšrw
qry
qnq
jḥꜥ
jḥtj
djf
jdg
jzt
ꞽns
ꞽnr
ꞽnꞽ
sktj
mꜥj
mꜥḏꜣ
hꜣbt
hꜣbj
ḥꜣbi̯
ḥbꜥ
drr
nʾt
kmwj
ḫpt
ḫpwš
mnwḥ
ꜣsq
ꜣsḫ
##tjt
mrrꞽ
mrr≡f
sdp
sdn
sdf
sdg
smꜣj
snbw
ꜥḥꜣty
jꜣby
ḫꜥi̯≡
nhwt
nhjs
ẖꜣ
sfi̯
ꜥšꜣw
gbi̯
gbty
gbtjw
ꜥḏw
ꜥḏj
ꞽwḥ
ꞽwnw
ṯzt
wꜣsm
dpḥ
dpj
snḏ≡f
gꜣf
gꜣwꜣ
ẖꜣw
mḏqt
jrjt
wḫyḫ
wši̯
mrḥnn
ꜣwr
pꜥpꜥ
10000
zḥj
zḥꞽ
zḥzḥ
swꜣgꜣ
ḥbsw
ywm
ḫws
ḫwn
ḏbꜥy
mkt
ww≡f
wyw
wyn
di≡f
pḏww
njn
njwty
njꜣw
tyj
tyjj
tjwn
tjwnj
sẖk
sšrr
sšrw
ḏꜥḏꜥ
ꜥprw
ssꜣ
ssfj
jšj
1600
znḥ
znnj
znzn
sqfn
ḥkꜣw
bjꜣj
dd≡f
pzd
ḫnmw
nꜥg
nbsy
nbsj
šfi̯
nšš
nšḏ
nšdy
nšbšb
ꜥwy
ꜥwḏr
spꜣt
spꜣwt
pjṯꜣ
dbḥw
ṯsb
zbw
jwꜣw
jnnꜣ
hnd
mnṯꜣ
ꞽꜣd
ꞽꜣꜣ
ꞽꜣmꜣ
thh
šrꜥ
šrm
šršr
bnrꞽ
zwzw
wšby
wṯn
ḫbj
ḫbḫ
ršpw
wnḫw
šꜣꜥsḫ
rkm
ꞽsp
ꞽsr
ꞽyꞽ
ꜥgw
sjꜣw
##snd
ḫnfy
ḥṯt
sqdj
ḫdd
ḥꜣtjw
kkwj
qmj
qmnn
qmḥw
nkj
mwtl
jꜣdj
bsw
njsw
njsj
wbtj
dbj
hnwy
kjꜣ
jwtjw
ksy
ksꞽ
npt
sḏꜣm
ẖss
ẖsw
ḥmsy
bšṯ
dgꜣw
ḫḫw
bby
rꜣy
##ꜣwj
ṯḥr
ꜥḏꜣw
knmwt
hhy
bꜣbꜣt
ḫnrꞽ
snw≡f
##tm𓊇
sḏdi̯
swnu̯
npꜣt
bꜥꜣ
bꜥj
tw≡nn
wrdw
pnꜥ≡f
hpnn
knḥ
knk
nqw
nqf
ṯmt
ṯmḥ
ꜥꜥwj
dḥrj
dḥdḥ
bꜣgj
hmh
ḥꜣwr
hbjw
rḥb
tftf
ngi̯
ngng
rjꜣ
ꞽdi̯
nḏnḏtj
gꜣbg
mssj
ḥjy
mḫꜣy
dgg
i͗w
i͗n
i͗jw
i͗ḥy
mndm
kšw
šndy
138
132
šjk
mhj
zḫr
jqh
wgm
wgp
ḏꜣyw
srdd
zꜣṯw
štṯ
tks
whj
whnj
250
hbny
ẖꜥꜣ
ꞽꜥꜣ
whꜣj
zbnbn
jhꜣb
ndw
ꞽꜣbt
szꜣ
rqw
njꜣj
bḫnt
230
wꜣḫꞽ
bḫnj
sꜥrt
ꜣht
ꜣhw
mskj
ṯzmy
nṯḥṯ
ꜥꜣꜥꜣ
225
ꞽšst
ḥtp≡st
rwhꜣwj
bṯy
ṯjm
šṯy
sgꜣb
7000
dšdš
kꜣw≡s
btš
btk
qwr
ḥnyt
šꜣmswt
gwf
wꜣḏyt
sswrj
nšnꞽ
zkzk
ꜥpšꜣ
msnḥ
ṯꜣmwt
rhni̯
ḥdq
msṯp
mꜥkḥꜣ
hnjnj
tjmḥy
ṯmss
pꜣḫd
kpnj
khꜣb
khꜣbw
pfss
ẖtẖt
ꞽwtꞽ
##rmt
ḥꜣgꞽ
ḥnswꜣ
pfꜣw
szwr
snhsi̯
bꜣnd
jꜥꜥnj
ꜣpt
nkꜣkꜣ
mnhḏ
ḫꜥj≡f
qfdr
šꞽk
ꞽṯꞽ
ꜥnꜥy
ḫzd
sjdi̯
šꜥtı͗
2000000
yhj
yhꞽ
ḥnmnm
msḫꜣꜣ
qꜣmd
ṯrwrw
rbrn
i̯≡st
nay
rkrk
ḳḏwdn
jntnt
nsꞽsꞽ
nṯḥṯḥ
00
1q
48
51
59
61
66
69
75
78
79
96
bkn
btw
bzj
bqn
bḫb
dt
dḏ
drj
dḏꜣ
dkꜣ
dnḏ
dfn
dḥw
dfd
drjw
dḏh
fi̯
fjw
fsw
gꜥ
gḏ
go
hf
hṯ
htꜣ
hkꜣ
htw
ip
ia
inb
jqꜣ
jqn
jḏḥ
knw
kḥs
kdu
kzi̯
kjry
mqr
mgs
nẖr
nṯn
on
pa
pḫt
qy
qꞽ
qqꜣ
rb
rz
rtj
rqr
rhꜣ
rpj
rhb
rby
rjrj
sṯr
s≡f
tẖ
tl
ta
tgꜣ
t≡k
vb
wwt
wpy
wfj
w≡tw
yy
y≡
yḥj
yhy
yrmt
zrj
zty
ztt
šq
šk
ši
špy
ḏq
ḏh
ḏpr
ḏbn
ḏfd
ḏhn
ḥbꜣ
ḥdj
ḥbꜣbꜣ
ḫḏ
ḳb
ḳj
ḳbḥ
ḳꜣw
ṯ𓊇
ṯh
ṯkn
ṯhꜣ
ṯtn
ẖm
ꜣkꜣ
ꜣjw
ꜣu̯
ꜣtw
ꜣfj
ꜣrr
ꜣkw
ꜥz
ꜥk
ꜥꞽ
ꜥwt
ꜥpy
ꜥ≡s
ꜥtr
ꜥꜥb
ꜥfj
ꜥhr
ꞽq
ꞽpy
ꞽgꜣ
ꞽfn
ꞽpp
𓊆j
𓊆jꜣ
𓍹n
##sb
##sp
##s𓊇
##sgs
##ssf
##sds
##dg
##di̯
##dwj
##dqd
##ꜣn
##bꞽ
##bḏ
##bḫb
##ꜥꜣ
##ꜥn
##ꜥj
##ꜥꜣm
##ꜥḏj
##my
##m𓊇
##mgm
##ps
##pg
##pꜣw
##rt
##r≡f
##rtb
##ḥt
##zp
##nꜣ
##njw
##15
##šꜥ
##šš
##šk
##šps
##qy
##qj
##hwj
##ẖd
##ẖbw
##ḫš
##kš
##kšr
##gj
##lm
##llm
##ir
##ʾwj
##ṯ𓊇
##ṯnn
##ḳḥ
##er
##200
##33
##600
ḥr𓊇
ḥrtj
pl≡s
nbjw
nbty
jrtꜣ
jmš
jmjr
jmbj
jmtwy
jwb
jwh
jwpy
jwrj
jwty
jwbw
jwpl
jwrw
jwšš
tjtw
tjsw
tjꜥꜣm
snr
snz
sn≡f
snḏꜣ
snkn
sn≡s
snḫn
snsw
nṯry
nṯr≡s
pꜣḳ
pꜣṯṯ
ḫrs
ḫrnt
jnꜣ
jni
jntw
jnḏw
tꜣm
tꜣr
tꜣ≡f
tꜣnw
tꜣḥn
tꜣḥw
tꜣṯnn
nfrꞽ
nfrty
kꜣf
kꜣwt
kꜣhꜣ
kꜣwy
kꜣjry
##wtw
##wtı͗
nsꜣ
ḥmzi̯
mrš
mrq
mrḫ
mri
mrjw
mr≡s
mrsl
mꜣẖ
mꜣwꜣ
mꜣḥw
mꜣṯꜣ
ꜥꜣgs
ḏdḥw
ꜥnḫt
twḫ
twpl
wnr
wnꞽ
wnṯ
wnṯr
wnfj
swg
swjw
swšr
swḥw
swgm
jt≡
jtʾ
zꜣj
zꜣ≡s
wrk
wrꞽ
ḥꜣs
ḥꜣ≡
ḥꜣk
ḥꜣtw
ḥꜣsw
ḥꜣrr
wꜥ≡f
wss
wsir
ḏi̯w
ḏi̯≡s
rnpy
rn≡w
mnk
mntyw
ḫnwt
wꜣd
wꜣꜣ
wꜣṯ
wꜣwt
pwjw
pwgꜣ
pwrm
tpt
tpr
tpn
mꜣꜥw
smšr
smtm
du≡s
bꜣt
bꜣḏ
bꜣ≡sn
wtr
wtnw
jbḫ
jbjw
jbzꜣ
ḥnwt
ꜣḫꜣ
ꜣḫb
ꜣḫf
ꜣḫꞽ
ꜣḫtj
nnn
nnwt
sḫnw
sḫwy
sḫbḫb
mjb
mjm
mjy
mjnn
mjꜥm
stk
stwꜣ
stjw
sthb
wjw
wjṯ
ḥwsw
msr
msš
mstp
msjw
mstr
mstt
mshr
msbb
wḏt
wḏnw
wḏ≡s
wḏḥw
ꜥḥm
ꜥḥwtj
nꜣp
nꜣjr
pnꜣ
jꜣḥ
jꜣz
jꜣḏ
jꜣrj
jꜣsj
jꜣtjw
jꜣnr
ḫnt≡f
sšwj
sšzp
sꜣp
sꜣg
sꜣḳ
sꜣwt
sꜣkꜣ
sꜣ≡s
sꜣhd
sꜣẖbw
mḥjw
mḥnw
mḥtt
mḥḏm
ḏꜣꜥ
ḏꜣn
ḏꜣjw
ḏꜣty
ḏꜣhꜣ
ḏꜣfj
hꜣf
hꜣpl
hꜣtyw
ḫprš
bjf
bjdj
bjm𓊇
ḏrf
rḏt
rḏꞽ
nwꜥ
nwnw
tntm
tndu
tnṯꜣ
šnwtı͗
srp
srḥ
nḏꜥ
nḏj
nḏrj
nḏḥy
mdḥw
mddw
mdꜣm
mwj
pꜣy≡j
pttj
ṯnḥ
ṯnu̯
ṯnṯꜣ
nḥj
nḥꞽ
nḥsi̯
nḥti̯
rḫjw
tʾy
tʾnn
sḥnn
ꜣbu̯
ytw
ṯꜣrj
sbd
sbb
sbw
sbꞽ
sbtt
sbdš
mtt
mt≡f
mtjw
mttj
mtmt
hrj
jtnw
ẖnt
ẖnnj
wpd
ḥḏj
ḥḏnw
ḥḏnḏ
ḥḏḏw
jsi̯
jswt
jswꜣ
jsı͗
jssj
nḫp
nḫꞽ
nḫwj
spš
spllm
jni̯t
jni̯≡s
mri̯≡
hrw≡f
wꜥbw
gr𓊇
tmḥ
tmš
tmwt
ḫfd
pst
psst
##wꜣb
ḥsꜣw
bndw
ḏwꞽ
zpw
zpj
zp≡f
nmmj
ꞽms
ꞽmy
ꞽmš
ꞽrw
ntwt
ntbw
ntrw
ntṯn
gsm
gsy
gstꞽ
ꜥšjw
sḥḏn
šsy
šsšs
wꜣḏj
wꜣḏ≡s
jwi̯t
rwn
rwh
rwrw
pḥn
špw
špj
špš
šws
šw𓊇
šwꞽ
šwwj
jppj
jpḥw
nḫt≡f
rmnj
ꜣbdj
qꜣn
šꜣmw
šꜣwꜣb
ꜥnḥ
ꜥnj
ꜥnk
ꜥnṯ
ꜥntw
ꜥnbw
ꜥnbr
ꜥnkk
sꜥꜥ
sꜥḫ
sꜥbꜣ
ḏḥty
ḏḥꜥꜥ
jṯy
jṯmw
ꜥqj
ꜥqi
ꜥqwj
##jw𓊇
ẖnw≡f
sṯw
sṯf
sṯnn
ḫmꜣꜣ
jꜥnw
jꜥnj
jꜥḏm
rst
rsn
rsi̯
rs≡f
rsu̯
rssy
ḥzzj
dmw
psḏj
psḏꞽ
qdr
qdfy
qdqd
sšm≡f
ḫsꜣy
jḫy
jḫw
jḫssf
sjq
sjnw
sjzy
qrt
qrq
qrꞽ
qnt
šꜥḏ
jḥt
jḥm
jḥdj
nꜣy≡k
šdt
šdw
šd≡f
jdd
jdḫ
jzꜣ
ꞽnw
##mꜣ≡j
skrj
skty
skmm
ḫrpw
mꜥb
mꜥḫ
mꜥrj
mꜥšr
mꜥ≡n
mꜥds
mꜥšꜥ
ꜥrqꜣ
ꜥršn
hꜣbw
hꜣbu̯
mšꜥq
103
104
nʾw
kmt
kmj
kmkm
ḫpj
ḫpnn
mnwr
ḫꜣst
šzpp
sdnm
sdšr
sdni̯
smꜣꜣ
smꜣjr
snb≡s
stpp
stpw
ḫsff
nmtt
nhn
nhq
nhꞽ
nhzj
wꜣḥj
swti̯
pẖrw
ẖnw
spri̯
sfw
sfkk
jtj≡
jtjtj
nḏmm
nḏmj
gbt
ꜥḏꜥḏ
smsr
ꞽwdn
ꞽwrr
ꞽwdw
ptr≡j
ꜥbḫn
ṯzy
ṯzꞽ
dptw
dpwy
ḥḥw
ḥḥꞽ
ḥḥı͗
gꜣp
gꜣsꜣ
ẖꜣs
ẖꜣj
ẖꜣẖꜣ
ḏbt
mḏt
mḏwj
jrr≡f
ꜣwsw
pꜥt
wḥmy
mrwḥ
dbnbn
smnn
1002
swꜣꜣ
swꜣwꜣ
swꜣww
dꜣs
myt
ḥbsj
ywpl
ḫwi
mkk
mkrjw
##nnꜣ
wypl
ꞽbhꜣ
njḏw
tysb
203
##ḫnt
qmꜣw
ssḥ
ssbj
ssꜣꜣ
jšt
jšp
jštꜣ
ꞽtt
ꞽtm
mryt
mryn
160
ḥwi̯≡f
znq
znꜥꜥ
trr
trw
wḏꜥꜥ
sṯꜣw
spdḏ
ddy
ddꞽ
pzf
ḫnmt
##ꜥḥꜥ
##ꜥḥr
##nḏd
nꜥjw
ḥpꜥ
ḥpn
ḥptj
zmꜣy
jrm𓊇
jmjm
šfꜥ
šfn
šfš
šfnw
nšp
nšy
nšj
nšjw
nšnm
mnts
mntṯ
mnttn
mntst
ꜥmd
ꜥmw
ꜥmj
ḥnky
ḥnkwt
ḥknj
šbtj
šbšb
pjp
ꜣḥꜣ
jmms
dbḥt
ṯst
ṯsjs
ṯsjꜣ
hꜣyt
jnnt
hnq
ꞽꜣꞽ
ꞽꜣṯ
ꞽꜣkb
ꞽꜣkm
thb
šry
šr𓊇
jnby
bḥw
ꜥḫjw
zwnw
snfi̯
ḫꜣwꞽ
nry
ṯḥnḥn
mtrḥ
mtrw
mtrwy
msḏm
ḫbt
ḫbr
ršp
ršy
ršš
ršwj
mzı͗
špssj
jpwj
rkjw
mꞽw
ḥmꜣg
ḥmꜣmw
srwjj
ꞽsd
sgn
sgrj
sgmḥ
ꜥgnj
ꜥgrtb
mmy
fdqꜣ
ḥꜥꜥw
ḫnmsw
sjꜣrr
ḫnfwt
ꜣmy
ꜥdj
sbḫbḫ
ḫdy
kkt
kkj
kki̯
qmq
nkjw
qbꜥ
qby
qbsw
sꜣḫw
hꜣw≡f
stjš
stjmw
fꜣg
pꜣwꜥ
rrʾwj
ꜥjn
ꜥjꜥj
wbt
wbg
wbḏ
sꜣww
dbb
dbjw
nẖẖ
prrṯ
ꜥqꜣꜣ
bꞽtꞽ
npn
npi̯
skꜣw
sbjn
ꜥḏdjw
125
126
ẖsr
ẖsꜣw
ẖsꜣy
kft
qꜥḥw
dydy
bštꜣ
mẖtw
dgꜣm
dgꜣj
dgꜣsꜣ
jwry
ḏꜥmw
nsrt
ꜣṯt
ꜣṯpw
zwnu̯
rfr
ḥqrr
ḥqn
mi̯≡n
ḏfi̯
šnḏw
zwrꞽ
ꜥḏꜣj
sndt
knmm
hh≡f
bꜣq≡f
bꜣbꜣw
bꜣbꜣwt
jsṯwy
ṯbhn
snwr
snw≡j
jꜣḫw
snni̯
snntj
sḏdm
nhꜣy
nhꜣj
thꜣj
ḥꜣmw
ꞽzf
npꜣwt
tw≡tn
krʾ
krkr
krḫn
jnḥꜣs
ꜥbšw
sꞽwi̯
ꜣqdqd
knr
knꜥn
sšꜣj
bwpwy
ꞽḥꞽ
ꜥrry
sẖꜣw
mḥn≡f
kfꜣy
ṯmj
ṯmzw
ṯmrw
ṯmpꜣw
ꜥꜥm
ḥꜥpꞽ
jḫmꜥ
dḥt
dḥty
dḥꜣy
jks
jkk
jki̯
jkzj
bꜣgsw
ꜥbꜣbꜣ
ꞽpf
ꞽptw
jwdw
ḏꜣmꜥ
ḏꜣmw
hms
ḥꜣwy
mnḏr
wnšjw
ḥnnks
1140
ṯpnp
ꜣꜥꜥb
snjt
snjhꜣ
ngsgs
ngmgm
ztj𓊇
ꞽdm
ꞽdꞽ
shd
ꜣdm
ṯnnt
155
1500
ḥjm
jdnpl
wḏḥj
ꜥmꜣmw
dgw
dgj
dgš
dgdg
i͗d
i͗m
i͗z
i͗q
i͗ḫj
i͗mꜣ≡j
kꜣrty
nwḥḥ
wmnj
mndf
mndyw
sgrg
fꞽw
hdd
kšꞽ
kškš
zmi̯
mꜣtjr
šmꜣy
dwdy
hjp
hj≡s
mhwt
zḫnn
šꜣšꜣꜥ
šꜣšꜣy
jqm
jqḥ
ḥwtj
mḥi̯≡f
ssmt
ꜣgbj
ḏꜥrʾ
sqꜣy
ztjw
byꜣ
tby
tbꞽ
tbhꜣ
ꜣzb
twnpj
swrḥ
swrꞽ
ntw≡w
štb
tkm
tktk
hbnꞽ
ẖꜥḳw
wnḏj
1400
pḫpḫ
whꜣs
whꜣsj
jhꜣm
wꜥfw
ndm
ndr
ndri̯
ndsds
sdbj
sdbꞽ
sfnꜣ
szbi̯
ḥzjj
skmyt
fqꜣw
40000
jmḥj
sꜣry
dwꜣww
jfdi̯
šwꜣw
hy≡s
ꜥẖy
ꜥẖnw
mjwḥ
syf
syfy
dmꜣꜥ
brbr
kbb
šsmt
nṯs
nṯṯ
ḥfy
ḥfnn
ḥfrn
2100
220
bqbq
ꜣr≡f
ꞽšs
ꞽšꞽ
ḫnjt
ṯjṯ
mꜣḥj
180
qrjꜥw
shꜣd
rḫss
wḫrt
šfdy
krjw≡sn
mḫnty
mḫnti̯
sgꜣp
ḫnn≡s
bꜣbꞽ
dqꜥ
dqq
jknw
ḫmꜥi̯
ꜣꜣj
ḫꜣbb
btbt
wgꜣj
ynꜥm
nbḏbḏ
mnqw
sḥꜣb
sḥꜣbi̯
msḏḏ≡f
bgꜣs
bgꜣw
qwqw
ꜣšb
ḥnytj
260
gwš
gwsꜣ
zmnnw
ṯꜣry
nšnš
1900
hwṱ
hwhy
hwhw
ꜣꜥfj
ꜥpš
msnšd
rwjꜣj
zḫzḫ
ḏmj
nwtwt
nꜥyꜣ
ḥdḏ
ḥtꜣw
ṯmꜣm
sḫwd
sḫwz
nhdh
dḥꜣj
tjmḥw
ꜣhꜣm
mhꜣj
ḥkk
jsyw
mṯꜣm
sjsj
wft
ꜣjrr≡f
ꜣmꜥw
370
kꜣmy
ḥꜣgg
ꜥẖnwtj
330
ꞽntsn
ı͗pl
snhp
ꞽḫmꜥ
ḳḥḳḥ
nfrydj
srmi̯
ḫfꜣꜣ
gꜣḥsj
ḥwrꜥw
ẖdr
ẖdẖd
swjb
mnfr
hꜣrp
hꜣrpwy
srḏy
ḫmḫmw
ẖttj
ssḫm
mjnꜣj
mṯṯ
mṯpn
ndbdb
wzf
wzṯ
ḳḏr
ꞽṯṯ
tjnr
tjnrw
nfꜥj
wstnj
nswyt
nswy≡f
sbjꜣt
mby
rṯm
rṯnw
ḫzꜣ
ꜣft
jwdnb
swhi̯
ḥmꜣmy
fꜥy
rhj
rhꞽ
##hwꞽ
jnmm≡s
sšwꜣš
mḥꜣ≡f
nḏdnḏd
snḥmy
krj≡f
sḳd
sꜣdd
mꜥmꜥ
ḫpḫp
bẖs
mgw
mgg
rjwm
sḳꜣḥ
jwpṯ
ḥngg
ꜣbꜣb
ꜥšgꜣjw
qꜣmy
ḥzꞽꞽ
mꜥnd
nšfšf
4500
gf≡j
hsh
kꜥf
qfq
škrꜥ
ḏnwd
##sy𓊇
ꜥꜥfi̯
wgꜣgg
545
mqj
ḥꞽp
ꜣẖꜥ
ꜥꜣgꜣs
bꜣgꜣy
sḥjḥt
jpꜣṯj
dmm≡s
kmwꞽ
gꜣbgꜣb
htpw
maa
tkrbr
ḫšḫš
ṯjrr
ẖṯb
jrksnd
nfrwys
sꜣhh
##wꜣj𓊇
ꜥḏjꜥḏj
njnkn
i͗npw
ḥdqq
dḏhḏw
gott
kḥss
nẖrẖr
rqrq
ḳbꜥ
ḳbḥw
ꜥtrf
𓊆jwꜣj𓊇
𓊆jꜣsy𓊇
snḏꜣḏꜣ
ḥꜣswsn
smšrw
smtmt
sthb𓊇
mshrt
ḥḏnḏn
ꞽwdnb
ṯpnpn
jrksndrs
